node {
  name: "input0"
  op: "Placeholder"
  attr {
    key: "dtype"
    value {
      type: DT_FLOAT
    }
  }
  attr {
    key: "shape"
    value {
      shape {
        dim {
          size: 1
        }
        dim {
          size: 64
        }
        dim {
          size: 128
        }
        dim {
          size: 1
        }
      }
    }
  }
}
node {
  name: "tinyLPR/mobile_net_v3_small/conv1/Conv2D/ReadVariableOp/resource"
  op: "Const"
  attr {
    key: "dtype"
    value {
      type: DT_FLOAT
    }
  }
  attr {
    key: "value"
    value {
      tensor {
        dtype: DT_FLOAT
        tensor_shape {
          dim {
            size: 3
          }
          dim {
            size: 3
          }
          dim {
            size: 1
          }
          dim {
            size: 16
          }
        }
        tensor_content: "3\222\276\276yf\204<\356\377\304=\002?\234\275\013%6\276\226\346\211\276l\207\010>\270\247\346=\205B\355>\016\363\254\276\246\3408\275\257x\213\276\246\026u\276}u\235>\324\237\324=<2\207\275\341q\334\276xK\206>p!J\2768\262W>\300\361\330\276\004\205n\276\277AP\277!\241\214>6\304\214>,\231\200\276\334\244e>\334F\300=\2019\303>\363\263p\276\303\357\362\274\217\332\307\276\253\274\321>\257I\312><N\207\276\310Jm\276\216\341r>^8\215\276\025^\216=h\205\243\274\256i\361=\204R\221\276\026\255\227<\373\242\205>D\254\021\276%ew\275\t\215\356\276\267\357\246=\371\227\324\275(\027\216\276\322\230\252\276(\337~\276\326\332\227\276\256\377O\275\252\037~\276\303\023P\2761\310\r>\325\366\370>\226=\363=\3647\270\276D\254\335=v\277\247>\347;\267>\226\345\350>(\224u>\264\302\323\276\003\221\204\276`\207\372>(\245 \276b\3624>\013Qb\276\363\312\323\2763\364W\275_\334\342>\010\206\242>1\2174>)\361\327>r\200\377\276\247\222V>\r\224\257\276\244\246F=\221\316\242<W\354Y>8\347]\275F\270\342<\257I\026\276\014N/>3\003\317\276\305Ui\276Ju\232>A\027\337\276\372d\336>{\256\263\276\025\034\017>\223\211\225\276/Y?\276\226\201\026=\223\225y>k\376\034\275\233\354\322\276\007k\243>9\216\216>[TK\276P\346\007>\303\303J\276\326#\025\276WZ.>\240\250\227\276nG0=\256L\314=\033Ah>\021\024\366>\004Da>[\017j\276\016)\276>\250\244#>v\373\t>\365\253\333>\002\036\250>jq\353=\203\016\335\27605@\276f$\276\276\320\316M\276L\226\230\275\350\343\252\276\311\345\022>\304\013K\275\252\370e\276SsI\275\203\250\273>$D\003\276IP\243>Z]\275=E\277s\275\351\210\323>\271\271\242\275\215S\316\274\372\013\261\276:?\017>\373\230\037\276\303\016{>)\220\207\276\302\257\343;"
      }
    }
  }
}
node {
  name: "tinyLPR/mobile_net_v3_small/bn1/ReadVariableOp/resource"
  op: "Const"
  attr {
    key: "dtype"
    value {
      type: DT_FLOAT
    }
  }
  attr {
    key: "value"
    value {
      tensor {
        dtype: DT_FLOAT
        tensor_shape {
          dim {
            size: 16
          }
        }
        tensor_content: "\330:f?\277\353p?\336\226k?%\216l?\216\017b?;\302\221?\\\242\213?\241\250\206?\302\314\213?$\373\251?\216oj?\244M\216?h\366T?,\033a?\006Xx?\n\200\204?"
      }
    }
  }
}
node {
  name: "tinyLPR/mobile_net_v3_small/bn1/ReadVariableOp_1/resource"
  op: "Const"
  attr {
    key: "dtype"
    value {
      type: DT_FLOAT
    }
  }
  attr {
    key: "value"
    value {
      tensor {
        dtype: DT_FLOAT
        tensor_shape {
          dim {
            size: 16
          }
        }
        tensor_content: "\273\177\017\277\266\201\246\273)\221u=\035\240\237\276\370\026\021?\353\205\212>\202t\026\277y\271\232\275\224T ?\355\025\025\275\357eR\276\362\266\277>\213h\010=\020p$;y\203\325>\n\302\314="
      }
    }
  }
}
node {
  name: "tinyLPR/mobile_net_v3_small/bn1/FusedBatchNormV3/ReadVariableOp/resource"
  op: "Const"
  attr {
    key: "dtype"
    value {
      type: DT_FLOAT
    }
  }
  attr {
    key: "value"
    value {
      tensor {
        dtype: DT_FLOAT
        tensor_shape {
          dim {
            size: 16
          }
        }
        tensor_content: "?\213l\275\002\026\006\274\n\212\260\274\322\266\260\275\273\207s\274\025\274\351\273\371K\207\276\216\352\357\272v90<\336\300\"\272K\320\315\275\227:\375\273\276\250\276:{\366\206\273qx\375\272B\233\006\274"
      }
    }
  }
}
node {
  name: "tinyLPR/mobile_net_v3_small/bn1/FusedBatchNormV3/ReadVariableOp_1/resource"
  op: "Const"
  attr {
    key: "dtype"
    value {
      type: DT_FLOAT
    }
  }
  attr {
    key: "value"
    value {
      tensor {
        dtype: DT_FLOAT
        tensor_shape {
          dim {
            size: 16
          }
        }
        tensor_content: "\371\343\n<I\265\364;\317\302Q<\330r&<\032\026u<\2653\222<\277\207\212=\233[\331;\2326\240<;Q\022<3\230\255<1\224\225<\t\302\256;G\346\246;O\031\225<\264\3606<"
      }
    }
  }
}
node {
  name: "tinyLPR/mobile_net_v3_small/bottle_neck/block/pw_in/conv2d/Conv2D/ReadVariableOp/resource"
  op: "Const"
  attr {
    key: "dtype"
    value {
      type: DT_FLOAT
    }
  }
  attr {
    key: "value"
    value {
      tensor {
        dtype: DT_FLOAT
        tensor_shape {
          dim {
            size: 1
          }
          dim {
            size: 1
          }
          dim {
            size: 16
          }
          dim {
            size: 16
          }
        }
        tensor_content: "tj\001=s[\246\276\201\314\256>>\014\277>\021\352e?+\2578>\243\364\356<\034C\345>\346\3674>\317\315\263\275\266\257\373\275\323\301\024\276\010\r\361\275\274\333\374\274\020\265\241>%u\004?\244\227\n?\300\213\375<\325\332*?\0201\221?\270\230I\276\374\241\034\277\347nP>00\277>\202\214y\276\237w\306\276\347\305\364\276\350\350\246\276\007|\001>\346\'\206\276_\243\026?f\023W\276\223\262%?\235\337\234\276F\212\323\2758\035\235\276\323\212\321>\310\352\362>(@\013?\027I5\277\250\220\036\276\236\350\236\276\302<V>\272\341k?\262\252$\276\3340\231\276\211!\033\277!\273\331>\303\023\270=\204\361q?8\005\230>\253\365\033\277\271\220<>\'E\357\276\256_I=\277\304\204=\333\204#?\364)\346\276\313W\240?\313\2429\277\024A\303\276\270\316\367\276\031A\312\276+\017\010\276\325Z\274=\262J\211\276\301H\356\276\356j\300\274\211X\275=\301\360\034\276x\233\241>\004\023\344\276\207=\t\2764Z\t\277p\360j\277\202\217\016\277_\210|>s\223&\277I\rG>q\031\306>m\332\256\276\036\367\350\275\205\n\332\276\nJ\264>[\024*\271\017d:\277\256\364\222>\214q\207\277\221y\357>D\000\365\275\032p\">ruD\277\031\324\340\276\330\264^\276\'\177\235\276f\330\353\275Yh\277?\372\323\207\276\364\230\263=\377I\254>\245\225i?V\315U>^\344\231>\221\221\341\276:\025\220\277\244*\261\275\217;\262\276\334\355\350>!4\337?\333\253\214\276\217=\006>Cm\312=\341\273\317>\013\262,>\372b!;EJ\233=\362\261L\2759\325\313>\350\025T?Fz\234>6y\000>o5\270=\243b\315=3\370\005?(C\342\275\361\215(<\033$\225\276\241\340\236\276\225\300\333\275M\262\033\277\316\363\357=\367.\222\2771,\227\276O\366\363>\347\177\026\277\271\311\201?\306\346\000\276\340^\262\274\005\350(\276\310\270+?^7\341<\023a\'>\322i\021\277\255\310;\277\222\263\376=\007\246\321\276\3652{>\337\3336\275\\L:\275\nA\302\276\272\255)?\023\\<?\2548\234=\310\323I\276\205VK\276\324\201\326\276\306\256\034\276-\2751\276\204\376\373\276\320\375\220\273Rn\017\277\277\316\235\276UV\373\276@\373\327\275\253\353`\277\230\013\025?\317\211\307=>\027\261>4Z\306=\204\370\032?-\274C\277\231\262\367\274Z\375\235;Ja\300>\234\300\016\276\355 \037\276\304|\252=\271\224Q?\277\345\007?K\324\362\276\340\266\337>_f\316\276\025\205\341\276\221\334\205>\331?\235\276t\343p\277\273\021\227>\006\036\001\277qNx>\267\333\016\277\273\007\002?\3636\266>\367\335\242>*\331S?\301-8\274&\267\273\275\302\273\223>\275\217H>\324\n\245\275\346]:>A\323\316><\270\242>r\205H>d\335\251>\315\030\362\276\322\2462?Vr#>\203E\030?\351\370\221?\357\0333\276\235h\222\276\230\250f>\342D\017?q\263\304>\211\355\251\275Ek\212;)\025\230\276\236I\010?\233\267\"\277F\007#?,\201\250>X|\217?Q\342\336>\347o\002?\036*\240=ls\037\277h,,\277\001!<?\223\227\"\276\033\232\030\275\031g\363=hV\037\276\031\001\032?\211\340y?\300\304\010\277nM\036\276\017\231\220\277\226\360\271>C\034P\276E#\234\276\256ek>p\230 \277_5g\276\372\240W?\373\256\222\276\307T\254\276`\246\245=p\240\360\276*\002\351\276\254{\220>4zc\276\025\232\023>\270\'\245>\215L\304>\271\024x?\235\314A\276"
      }
    }
  }
}
node {
  name: "tinyLPR/mobile_net_v3_small/bottle_neck/block/pw_in/batch_normalization/ReadVariableOp/resource"
  op: "Const"
  attr {
    key: "dtype"
    value {
      type: DT_FLOAT
    }
  }
  attr {
    key: "value"
    value {
      tensor {
        dtype: DT_FLOAT
        tensor_shape {
          dim {
            size: 16
          }
        }
        tensor_content: "\177\344\365>\000,\243?F\334\233?HqP?\024\350\203?P\026N?\214Rr?\220p\244?|\213\251>R\323\252?\375\274\010?\220\231D?\036\264\023>F\251Y?\204[)?\013Rx?"
      }
    }
  }
}
node {
  name: "tinyLPR/mobile_net_v3_small/bottle_neck/block/pw_in/batch_normalization/ReadVariableOp_1/resource"
  op: "Const"
  attr {
    key: "dtype"
    value {
      type: DT_FLOAT
    }
  }
  attr {
    key: "value"
    value {
      tensor {
        dtype: DT_FLOAT
        tensor_shape {
          dim {
            size: 16
          }
        }
        tensor_content: "\343C\337>\246\245\021=\275\225\026=\353=\252=\362\222\336>\357\312\330>v\313\262>\022\027\003>\350\246G?^\230_\275HC\003?nL\253;\002\001p?\253\377\377=/\n\r\275\323\370\024\275"
      }
    }
  }
}
node {
  name: "tinyLPR/mobile_net_v3_small/bottle_neck/block/pw_in/batch_normalization/FusedBatchNormV3/ReadVariableOp/resource"
  op: "Const"
  attr {
    key: "dtype"
    value {
      type: DT_FLOAT
    }
  }
  attr {
    key: "value"
    value {
      tensor {
        dtype: DT_FLOAT
        tensor_shape {
          dim {
            size: 16
          }
        }
        tensor_content: "A\022P?\034\317G\277\320@\374\276\021=&\276_r\031>\225}\221\2765\242\270>\353\251\351<\200\235\330\274\007\326\272\276\202\207\205\277>\325\235\276\347\010\206\276^\024\264\2761%\034\276b\2404\276"
      }
    }
  }
}
node {
  name: "tinyLPR/mobile_net_v3_small/bottle_neck/block/pw_in/batch_normalization/FusedBatchNormV3/ReadVariableOp_1/resource"
  op: "Const"
  attr {
    key: "dtype"
    value {
      type: DT_FLOAT
    }
  }
  attr {
    key: "value"
    value {
      tensor {
        dtype: DT_FLOAT
        tensor_shape {
          dim {
            size: 16
          }
        }
        tensor_content: "B\360\207?\257\273\316?\316O\327?\367O\n@\340Kb?q*`?8\033\324?f\r\200@^\261R?\304\013A@;\262\177?R!\267?\254\311\325?\312\231\031@\373\311K?\311\331{?"
      }
    }
  }
}
node {
  name: "tinyLPR/mobile_net_v3_small/bottle_neck/block/dw/depthwise_conv2d/depthwise/ReadVariableOp/resource"
  op: "Const"
  attr {
    key: "dtype"
    value {
      type: DT_FLOAT
    }
  }
  attr {
    key: "value"
    value {
      tensor {
        dtype: DT_FLOAT
        tensor_shape {
          dim {
            size: 3
          }
          dim {
            size: 3
          }
          dim {
            size: 16
          }
          dim {
            size: 1
          }
        }
        tensor_content: "\n\360\002>\031Y_\275\031\262\002\276\005X\331;LXg\276\004]\357>\264\026/>\t\224\245=8G1>\000\302\237>\256\333\373\275\340Q\024\275\0238\251\275\360B\350\2759\206\023>Q\357\002>V\353\202>\246\252\342=\372\372\251\276\327\211P>\373s\260\276\345\026t=\3438\223>%#}>q\250x\276Z\036\332>\031\374\266>\276\244\256>\007\321\253\276\301\321]=\3362\346>5\314\300>f7\317\276o\001\000?\033i=\276\t\214\205>C\0147>\334\331\257\276i5\223=\000\271t>\262\366\033>\346B9\273L\352b\276\005<\216>St\333>@\237\242>\344Cb>\366\351T>\031_\320>JB,\276b&\273\276\321\326*>\233?\322\276j\201\372>\2712\377>;\373z>\364\n\364>{K\337>\n\305\244\2764h\037>\240\330\324\275\263\333\005\276\241\363\252>\265\355\252>\r\365:\276\177\204\206\275Q+\013\277\037\334\357>:F\024=t\244\257\276\267\234\340>\265I\000?j@\003\277\224r\201>\004w\021?B\321\021?bU\343\276\002 \322>\371\201\334>\313 \020?x\365\225\276\335\2257?\253\217\324\275k\270\314>\326\\\334>\266\331\216\276\276$\225=\000X\252>\266%\276<\341Q\016\276\255d\343\275BgN>\343\005\343>\354\310\342>\354\276\332=\356\235^>\370i\225>\367\031\256\275\006\316\223\276\025e&>\224\254:\276\036\354:=E|\265>\362\\F>\313\217\246>\202K[>\320dX\276\234u>>I;L=\373\201\007<\3026q>\231\363\232>\304\027\341\276\330\340`\276U.r\276\003N\231>\227\334\302>\206\316\206\276\204\022L>\245\310\243>\2315\241\276A\004\335\275\020\255\235>\227\273\224>\366\222d\276V\234\315>Q9N>\304g\211>\301\361\250=`m\202>E^\355<0h:>\356\277G>b[J\274\262E\304\271\213\003\007>|6|\274\233\213\305\275Q\356\033\275?\005\014=\330\343&>\240\277J>\215>\n\274xU\362<"
      }
    }
  }
}
node {
  name: "tinyLPR/mobile_net_v3_small/bottle_neck/block/dw/batch_normalization_1/ReadVariableOp/resource"
  op: "Const"
  attr {
    key: "dtype"
    value {
      type: DT_FLOAT
    }
  }
  attr {
    key: "value"
    value {
      tensor {
        dtype: DT_FLOAT
        tensor_shape {
          dim {
            size: 16
          }
        }
        tensor_content: "\003.5?\025\234\013?\032\314\n?+=g?\277\3221?\303\3344?\031l\205?F\216\244?\325cl?\325\3719?\376A\374>(\2759?\343|c?\333\344\\?\2371%?W\201[?"
      }
    }
  }
}
node {
  name: "tinyLPR/mobile_net_v3_small/bottle_neck/block/dw/batch_normalization_1/ReadVariableOp_1/resource"
  op: "Const"
  attr {
    key: "dtype"
    value {
      type: DT_FLOAT
    }
  }
  attr {
    key: "value"
    value {
      tensor {
        dtype: DT_FLOAT
        tensor_shape {
          dim {
            size: 16
          }
        }
        tensor_content: "\254\027\025=\242\034\362=}\272\357?O\335*?`\252\r>bi\354<\211\272d?*\r\302?\323\000\200\275;W\224>\t\277\364\274 \006\r?\250,\311\275\016t\022?\026\261\251>\000\232\000?"
      }
    }
  }
}
node {
  name: "tinyLPR/mobile_net_v3_small/bottle_neck/block/dw/batch_normalization_1/FusedBatchNormV3/ReadVariableOp/resource"
  op: "Const"
  attr {
    key: "dtype"
    value {
      type: DT_FLOAT
    }
  }
  attr {
    key: "value"
    value {
      tensor {
        dtype: DT_FLOAT
        tensor_shape {
          dim {
            size: 16
          }
        }
        tensor_content: "\374\321e\275\202\347\263>\221K<\277\373\010\005?\002?\257;\202\211\267\275\005\017d?\272\036b?\262\215\214<\214\354\300>\365.\372=s\033\316>\363v\362\275\242d\324>w\364\235>\271\214\005?"
      }
    }
  }
}
node {
  name: "tinyLPR/mobile_net_v3_small/bottle_neck/block/dw/batch_normalization_1/FusedBatchNormV3/ReadVariableOp_1/resource"
  op: "Const"
  attr {
    key: "dtype"
    value {
      type: DT_FLOAT
    }
  }
  attr {
    key: "value"
    value {
      tensor {
        dtype: DT_FLOAT
        tensor_shape {
          dim {
            size: 16
          }
        }
        tensor_content: "\004le>\373\277)?6\311m?\"\035\036?\2010]?Pt\234>\2428\233?\261{\344?\030\0233>@\350y?\177\247\376=;E\356>\223\004\023=:\002:?\0220\343>\302Cw?"
      }
    }
  }
}
node {
  name: "tinyLPR/mobile_net_v3_small/bottle_neck/block/pw_out/conv2d_1/Conv2D/ReadVariableOp/resource"
  op: "Const"
  attr {
    key: "dtype"
    value {
      type: DT_FLOAT
    }
  }
  attr {
    key: "value"
    value {
      tensor {
        dtype: DT_FLOAT
        tensor_shape {
          dim {
            size: 1
          }
          dim {
            size: 1
          }
          dim {
            size: 16
          }
          dim {
            size: 16
          }
        }
        tensor_content: "?t\016\276\252\025->\271\254,?Y\336\230\276\3476/\276|\216\211>\306P\034>\220\314)\274\274\334\242>\177\031+\277o)\235=*\375\031>\324\247\033?\370\321\356>\021h\274>\207\223\200>)\260\341\275~H\320=5T\363=\340\213\342\276\276\013\304\274^\355\341\2761\251\273\276\312\034\300;\252\361\232=\236\241\340\275\306o\354<\334\n\027>\003\345\210\276\220M\263=u\020 \277\223\237\r\277\306\260\034>\262\223\'?5\006\250?\204\004^>\224\3079\276\370\257\'\276\355\024\255>U\364\r\276\004W\004\276zL2>\355\251\343>\356\026}\277\345\363\371\276\240}\037\277\266k\001?\244O\340\2745\260\376>\261\352@\276\244\200\034?\372\224i>K\335\360=\017 \036\276\276i\201\276QJ\224\277\370\037f>\023?g>\003\331\362\276\270T\355=I1\007\277T\312\341>\324\322e\275\210\313\324=\021\2222<\273\266\344>\217\317\361\276\262\337^\277k3\201\276\324\370?=\331\'3>\311v\316\275\035\240*?\032\202\260\276\034\362\301>V5,\27781\021\276\205\027\024\275\026\3371\276\260\276|=+z\021\275\211\2639\276.\376\363>\342\014\317\276\202\331\005\277\231\255F\274\321\213\245\274\244\244T\277\2620\016\276n?e\275\231T\013?)\204\345\275,_&?\372\267\336>le\216<\260\220\347\276\276\235\207>4\265e\277\0049\366\276\2306\014\277\211\301\324\275Y\004\257\276\247\305e?~\310\036>\336\002\355>\217Bs?\'\373\000\276\n\206\037\2765\260\010?\341\267\002?\303t\002\276\303\344\"?.\363\205>\\\332\271=\003\231\356\276\224l\022\277\313.\375\276\262\"z\277\2319D=[\031\021\277\222\0046\277\273\241Z>\337C\027\276L\300\240\276\301v\014=\273\201\270>C \330>\2475m?P\221\231\276\240]\361>a\303\330>\342\330\300\275\215\352\341\276\270P&\276\2006\344\275\337<\r>\3221\027?\2466\205>\014\371E\276Gey>\227\201\365\276\255\216x?\n\303\014>{\312\226\276E\253\205>Q\314\023?\245-7?\"\337\036?+w\264\2761{\250\276\377!\217>\246/\013\2767\343\017?\006\344\366>%\361\340=?\214\355>^\370\306\276Q\327\331\276\371\177+?\361\270\000=\270\007\223\276\333U\245>\247\355\025>\006\320\311\275t#\317\276\033\3200>\376\\\205\276R>\341>\335O;>\207\237`? \000\206\276\353w\373>\265/\005\276\366c\027?x\331@=\016\2242\274\311\027W>\2125\376>\354h\234>\036Y\267\276g8#\277\2225s\276\234\246\310>\303,I\275\203,\272\276\034u\222>1I\376>\252\213\252\276\321\336l=\255o\247\275nE\017?-G;\2761kR\277\256\020\316\276\215\243\342>\366\334\251\275\303R\233\276jq\234\276\312rz\276\245aQ\2768i\315<\364\001g\275q8#=\274\325\026>\330?^\277\320\031_\276\213o\370\2763\371H\276\317\276\220\2773\2043<\257\245V>\206]\006>\232Y\232>^>\210>2s\343>\205\370i=\366\3302>\013\234\343=b\030\304>\306D\324>\373\242\020\277M2\'\276,\330\314=\356\326\372>\214(\024\276Q9\326<E\tf\276\320\312\356\276d\356\022>\025\027u\276\234[=\277\023\343\325>\235_\016?\217\300\005?X\240\231\275I\205\360>\312\375\036\276\002H\306>S\024 \277W\336\305\276\354\272\205\276w^\031?#h\212\274\313u\203\276\023\331\213\277\271\254\374>\2704+>Iv\237=\211\361\246\276\241K\311>\302\246\202?\313\335>\276\375\325L?-9.>H\314\001\277\300\3071\275"
      }
    }
  }
}
node {
  name: "tinyLPR/mobile_net_v3_small/bottle_neck/block/pw_out/batch_normalization_2/ReadVariableOp/resource"
  op: "Const"
  attr {
    key: "dtype"
    value {
      type: DT_FLOAT
    }
  }
  attr {
    key: "value"
    value {
      tensor {
        dtype: DT_FLOAT
        tensor_shape {
          dim {
            size: 16
          }
        }
        tensor_content: "\256E\235?\372p\215?\342\274\177?x\237q?U\276m?b\037\256?\355\010\206?\247,f?|v~?\tS\032?\'\255\212?\313\250\215?}\230\217?\245\003_?\320:K?6\357\215?"
      }
    }
  }
}
node {
  name: "tinyLPR/mobile_net_v3_small/bottle_neck/block/pw_out/batch_normalization_2/ReadVariableOp_1/resource"
  op: "Const"
  attr {
    key: "dtype"
    value {
      type: DT_FLOAT
    }
  }
  attr {
    key: "value"
    value {
      tensor {
        dtype: DT_FLOAT
        tensor_shape {
          dim {
            size: 16
          }
        }
        tensor_content: "\254\337\246\275Lq\202>\032\254w\275\334N\032>H\226-\276@B\030?\361\360\233=\333F\202=\272\222\312\275\256\271\246\275\362=\366\275\225\206F=o>\357>\213[\367\275GWN>\014\232a\276"
      }
    }
  }
}
node {
  name: "tinyLPR/mobile_net_v3_small/bottle_neck/block/pw_out/batch_normalization_2/FusedBatchNormV3/ReadVariableOp/resource"
  op: "Const"
  attr {
    key: "dtype"
    value {
      type: DT_FLOAT
    }
  }
  attr {
    key: "value"
    value {
      tensor {
        dtype: DT_FLOAT
        tensor_shape {
          dim {
            size: 16
          }
        }
        tensor_content: "e\257\274>!-\262?=H\033@[\274\275\277\267j\017\300\033(\013\300\221H\324?-u\340\277\t\241\242\276(\033\021@\211+\257?\371\365\t\300\362\000_\277S\\\332>\337\262\264?\003\'\351?"
      }
    }
  }
}
node {
  name: "tinyLPR/mobile_net_v3_small/bottle_neck/block/pw_out/batch_normalization_2/FusedBatchNormV3/ReadVariableOp_1/resource"
  op: "Const"
  attr {
    key: "dtype"
    value {
      type: DT_FLOAT
    }
  }
  attr {
    key: "value"
    value {
      tensor {
        dtype: DT_FLOAT
        tensor_shape {
          dim {
            size: 16
          }
        }
        tensor_content: "ea\252?\300\n\372?g\377\023@\344\372 @}>_@\226\330\027@\220\332\214?\214\035\331?\220\000\360?-\022C@\213\226\270?(\035\\?1m\037@\264\302D@\001\242\204?Kb\035@"
      }
    }
  }
}
node {
  name: "tinyLPR/mobile_net_v3_small/bottle_neck_1/block/pw_in/conv2d_2/Conv2D/ReadVariableOp/resource"
  op: "Const"
  attr {
    key: "dtype"
    value {
      type: DT_FLOAT
    }
  }
  attr {
    key: "value"
    value {
      tensor {
        dtype: DT_FLOAT
        tensor_shape {
          dim {
            size: 1
          }
          dim {
            size: 1
          }
          dim {
            size: 16
          }
          dim {
            size: 72
          }
        }
        tensor_content: "b!P;\361\272\035\277\024\'\035\277\252g\202\275\344 S>\353\377d?\002\327E\277\333\\Y\276\020]\322\276\2768\355\272\001\217\363=\'_\371=?\023E\277\002\030%\277\307\334-\277U\034\261>\347\330Y\276\333\271V>\330,]\275(\036&\277eI\312>g+\031\2744x\253<lt\317>\276\033\272>\350\352,\277*\311[=\222\347\225>\377\375\244\273\017\000\210\276\327Ct\275L8\317\276\257\327\010\277\326\207Z\276\201\364\276\276\352\314\372\276\347\212N\276\004\300*\276R\3500\277Q\323\"?\372\366?\276\306\375^\276\236\215a\277\302\343\303>\303\330\007<\314\234?\275&y\270\276\204\366\214>\363\0306?i\262\021\276J\372)?(7\006\277\357\t\006\277x\2577\275\3549\r?\0010J\277\303\216\236\275\030h\324>\202\234+\277e\240\226\276\351\2766\276\000[7\277.\371;?\rm\017?k\344\366\276=A\261>\017)7?+F\370\276/\332I\276\377\267\201\277+\324\035\277^P\363>\251\221L>\314C\001\277\001\311\026\276\007\360\324=(\220\217\276\200\376\374\276\246b\324\273\235}\270=\007/\223\275\347\367\020=\033\223\010\277\325\247??\216Y8\276\206\357\352>\227\t\276>Q\353\213?\274C\212>uqg?\217\351f>\255\017\000?\251\321\"?\370^\221>QX\277>\200\366\007\277\022\363\022\275\311\2551\277\231\202\323\273\"\335(\276\220\314\014\275\353\001}\276W}\032\277\2551\006>f\350\232\275k\036\311=w\004\276>\035_\226>_\262\334\276F\273\350>\354[\307>\210\223}\276+\3548?\360Z\362>\320\2430\277Y\337K>{Dr\277\017\244\343>G\344\r?\205\207)\277\032\244\">\201\0012?\207V\017?\344\276\325>\001\004\262=\326R\331\276\251a0=j\352\222=&\235\232>\0047\310>\210R_>M,8?\326\301\r\274\305`W>\277\252\324=\375\343m>\'\0179?\347Cv\276<\255\t\277\342=\007\276\377\315\310=\210\225\211\276A|<?\330\006@?\305\252\345=\346\035\313\274c\353\036>\311\353\217?\360`\372\276\277\004&\276aJ\216>\371vQ:\035\377\221>\r\240\205>\344\254;\276\210\216\223=\341\331[=\274V\276>\035w\t\277=H\252\274\324 \017?\333S\315>E\367\227?C\250\016?p9\320>\264\\\027\275\27578\276\303 ?>\373\356W?\336\277\036\277\353C\013?I&\233\275\213W\002?\303\342\364=\220\303\313\276tR\027?\370\203\014>\233!7?z\324\004?\006\355\261=\361X\371\276\367Q`?IoJ?\344\3256\277\302\234\264>O]\323>\350\270\312>\234$2?\007P/\277<D\217\275\367\375\003=\006\t\235\275\205Ze>)\206\212>\333\351\275\273\262\216\002?\366y\037\276\305|C\277\211\005\263>\361\323\370\275\362\314\372> \200M\2769\003\335=\274=(\2773\333$\277V\025\253\275\222\257#\277\251,\265?\327U2>\357p\205>!9\000\277\320a\004?\242\250\231>\263\346\022<)J\303>m\007\330\276HZA\277r\305\014\277\201&\225\276\202b<?\241\315\362\276\033\002\227\276\251\016i>\362\333>?j\r;>H\347\n\277^\021\234\276\263\323\207>\201t==8\256\254>\337/z\275\214\316\256\276\276\r\323\275cZP>\200\237/>\350\331d>c\373\347\275\335\360~\274o\341>\277\245y\303=?\352\363>\017F0?C\314\253?\375\265\013\277\310\\\225\276=\333\266\276(9?\277\2300F\277\331\360)\277\332\013\372\275@*\030?&\225\253>\324\021\365=\320\r\212=U/$\2776\277Y>\033v!>{\306\r\276\217\261\005>pR\362=\335\010\244\276T\004\246>\306}\256>5\274\030>E\336\022\277\\6\370\276g\305\365\276(\233\361\276\214_\260\276\327\035#\2768\353B>\203\210\264\276%d\032><\252\376\276\272a\234\276\020\235\204\275\274\004\362\276\205\225\355\276\366\352T>\351\341[?\350\323p>\221\363\353>}\214\233\276\306\216 \276\340\2358\276P\214\310=,\006\030?\224b\206\273?9\302>@\304B?\021\326}\277\200\221\333>~\354\023\276\021\312\372\275\246\021\200>\277\315\225>\350\r0\275B\277\310\276\212I\001>~.%\276\'\303v\276d\221\n>\264\357\255\275\006v\322>\347X\220\275\243wR\277\367z\312\276\215\214\310>\r\232O\277DgE=\343\2320\277\267\232\024\277\347\017j>\311h\314>1\"\247>6\017\r>L|%?!\2017>\201\255\345\276\027\366\216\276\202)S\277\370t\"\277,O\013\276\336\034#?D/\002>\361\365\332\276Si\240\277\225{\233<\236\021!\277dJ3?\354\374G>\221\023\247\276\236\240l\276f?\003\276#\010\320\275\305=\216<\340$h\276+\232\305\276 \272\264\275O\202C>\334\357H\275\000\225J>\331c6=\353\230\026\275\365\0267\277\250\355^\277\304\266/>\022\210W\277\376\272\266\276W\211\t\277\3231\027=6X\222\2760\306\272\276\317\3166\276\341\215P\276l\256\314=ZB\266>H\017\264>(0\306>9\244\242\276\006z0\277\265K\204>\264^\271\276\276\021c\276\010\324\373>\265\223\302\275\0307\227=l\275\343>}\271\r\277\366\364\341<n\272\000\277\277r%\277\202~\252?\331T!>\324\3717\277\220\223\373\276\3522\001=\370\304\223>\201`\240\276\270/Y<\311\225\377\275NFK?\375\021\020?\315t#?v\360\344>\223\207N\275*tm?\342\334\370\276\362\032z?^\'\007\276u?c\277\204\370\305>\350\231V\276=_\222=\220-:\277\275JX?`\233F?*\332\320\276\253\305\307\276\n>\215\276\270\313D?\307v\022?m\0371>\374C\r\276\"5\366\275K\327=\277j\0168?3\246/?\017X$>\2163\377\276\320!>\276\014\356\010\276\267:\323\276<\312\246>I>\345>Hp\376\273\251\027K\277\244\311\323\275b\317\014\277\334V^>\330wY\276\340\010]\276Z\216\307>\025@:\276\275`\003>\266 \360\276\360\036D\277\303\210\r>\334\324h\277\026\217\313\276\237\372-?\0055\263> \227^>\305\2077\276\n+\202>\0238\002?Va\335\275pGX<Tz\347>\307vD\277\334\211g\273<\017\255\274k\235\272\275\315\235\270>f\256\363\275\020\257<\276\301\315{\277\234\361\215\276\1771\257>Ft\204\276\200\267\365\276s\344&\276\020T5\277j$\332\276\036\017\026?\370\016O=\211\272\032\277}EA\276\\\306\200\276ofF\276f\360\360;\303\237D>\242\032\203=\010\252\312\276\217\037*>\255\\\006?\3311\001?X\277#=?\'\266\275NL\202?,\277_\276\334\340\345\275-TI?\031\365\326\276\007\323\006>\334\301\265>\302D\211?\232\342\367\276\360W\253\276=\353\033\276\375\\\364\276\016\206\007?v\211\225\276g\3435\277\305\026{\277\327\333\266\276 \321g\276\256Ul<\013\250\336<\216\364\202=\260t0\276\n\361\376>\t\317=\276\250\252\036=\373D\033?\021\262\264>G\014!\277R\312\017\277\230\315\213>\312\200\253\276\334\n\204>\3734^>\002\024\203\275S\315\227\276\223\255{\275\254l\014\277\262_\n?\231\264\251\276\347\026\212>\340\315B\277%\365,?\315q\340>\300\343\032\277MB\221\276\267\311\221\277\017c\337\276h\317D>\276\021\002?\037UO?M\363+\276\236\247\361\276\010:\262=Q\222\336<Q\363P\275A\007&?f\263\337>}\305U\276E\356\005\277\022%u\276\247\007D>\tu`\276\320\337~=9\242\245\276=\305\335\276\360\356\257\274CCl>a\333\000>\334\373\311>\276\375)\277lM\363>\036e\337\275\000\260\350\275\034\024\237=\336\337\261\276\274\203t>A\354\263>\301\204\350\275\234\2112\277\273\'M?\254\337\332\276a\343L\276\232O\233<\323\031V\276\2320(\277w\022??\270#\023\277\356~\002\276m\240\351=V\r\001?>o\247>:q4>\303\362\023\276\177\205\210>\r\207\306>\332C\255\275~9\237<^\013\000?\014\272B\277\010\354H>R\201\n?t\033n=Q9i>:0\n\277\324\031\025=\034\331+>\310H\265>\307\372\021?\227r\337\274\003\266\n>\025\250\266>\271}\006?\356\226\343\276\021\347\344\276\276\370Z?\324\3167>\332\224y>\270(\253>U\361O\2762\250\307>\217\264\241<s\277\016\277\220\023k?\363\374\366>\300\250\225=\301y\\\276\000U\374=K\364\267\276\313K\312<\313m\212>\240\0251\277wz\253\276\203b\247\276\340\305\202>\332\354\003?Y\022\204\276\001\240\213\277\231wb\276\231\371\220>\267\220\230>J\027\000<\307\2330?\2423\270>\302L\t?\275\006\005>\301\210\020?\367i\315\276&@\270>\250\2730\276\332\212#\277\220N\024\277\234\\\202?\035Z\007=\001\014\237\2769\373:\277\035^\301\276\244{\323\27639\007?\305\354L>\016\212\365=\305m\245\275g\003\371\276;l2?\r2\333\276\264bo=\252\026\242>\303u\302\276\250\262\252=\254S\255>\231s\353\276Z\021\357\275\271`\266\276\"&\024>\275%\322=\r\324\234?\016\353\323\274\372y\322\276\026\227r>\244}\224>\222d\276=vt\317\276\370\351\340>\367\354\233=\240\337S>\272\266\211\276AT\\>\331\254\324\276uJ\244>\037\270\377\275acc\276\225N\263>\030\234=\277\267=\270\276\353E\223>L{\001?aO-\277\337\001\234\276H$\031?@\0071\277-I\271>0\276^>p\376\006?\231\345z=\363|\371\276\222\026<?\237\2055>\237q\260>B\004\302>\2201\332\276\013\211.?\265\335\202>\323q\341>\257Y\300>.\022\200\275\027\250:\277\364 \013\274\350\230\004?l.\235\275\272f\302\276\001\033\207\275dx\350\275\000\264\302\276\332\346\260\276\'\007\213>Z]\033\275\200\217\201\276\273\354=\276\307j\270\276|\350\021<\365y\003?\021m\004>\246j\226\275A(W>\365\2732\276\267\342\267=\310\252\204?\027\332R?=\021!\276\255\020A\276e+\206\276\r&\033?U\246g>\203\010)=\306z/\275@\346\346>\220\237\266>bx\236=\203g\323\275!@\363=\230\235\220\276\261\210\206;\n\350\262=e\240X\277\302\r\323>\033J\253\276\"\227\223\276\232\203@\277wIL=\317Qw\274\237\022]=RtB?\026\265\013\277 ^s>\236jA>k\232\002>>\210\010?w\\\023\276\367\213{?V;-?\324\030y\276OY\304\276\003\'\033>@;\271\276M\367\210?\231\264O?6P\006\276\315\246 \277\327+\274\276\306T\210;\272\017J>\3761/=\337VM>\277M\037?\022\302\230=b\020+?\"a\264\276\326\302+?z\240\367>g\276[>\3452\366>\333#\r\277_\027M?\014#\306>\215\373)\275E\314\372>\377\254+?\030~7?\233\024p>\235\343\244\276|P\317\276\340\001\016?;\330\036>\364\210/>_\324\030\277\032\272\321\276^e\346>5\345u?PY\363>\333R\362>W\203\230>V-B?\374\243t=\017\234r>\361T\357>jk7\277\375\362\"?\357\\:\277:\372\021\277\211(\">\237:\370\275}\312\023>\246\226A>\220\320\357\276\327t\216\276 \324\022?\177\304u\276\035\363\305=N\361\000\276P\017\251\276\221$7>\356\302\234>\266\376S?\220]\305\276\323\335\362=\233\373`\276\2726S\276\033\256E?y\360\232\276\337\034\357=@\316\350\276\232\202`\276^\240\252\276\'\374\304>Ep\203=\003\257c>[S\267\276\347\037]=%5\260\276\000m\206>\006\002\004>\330\270\000?o\207\264<7\'\023\277I^\273=\327\235J?\241\267\366>w\353!>|\220)?\301\233\037\277A\311\226<>f\266\2754\322\000\277\201\tb\277u*\275\275\200`\224>\254\005?\274]\311\320=\301\341\247\276\276is\276\024\231\021?p\001\213\277\177^>\277\003\264\016\277\320\212\031?FU\236>#|\203?\237\337\020?\360\2128\277\027P\366\275\373_^?xR&>\013_6\276\232\016\326\275\010\330B\277\266\213\202?\2774\304=\233\301\201=o\207\212\274.,\361>o\255\237\276\247\2122?\215\3156\277\315g,>\375#\014\276\021\005\200\275\357<\246\277\371\321:>\301\021,?=\010\202=a\246\007?\3230C\274\016\336\220>T\355D\276Y\031\023\277\200] ><\241\251\276\310\312\313\2763~\200>\242\361\024\276\202\3155?8\341\300\276\277H+\277\354\356\253\275/\212\215\276w3\332\276\326\034\364>;\270\354>\344+.?s\235\221?\rC\025>\024\335\036\277\371\241\345\275\301U\263>?\363\354\276\335\366\"\277\245T\276>\315W \277\020n\204>tA\023=\\1\025\277i\313\360\275\355\300C?%\001\335\275O\234{\276\241\200\000?\326l\023?7\t \277\330N\225=\360\363i\2753\201\256=-\207\205\276\035\372\362\276\3324\032>D\0278>\327.\003?M\343t>\221\346\356\276v\322\314\276T\3262?\2668\245\276H:9\2777\014b\275\251\"\227\276\333\"i\275\245\355\005?\331&\020\276\243J\t\277ia\036?\377\334Q\277\024\206\223=\n\352\255\276Yb\272>\262\327}\277\2669\243\276\002P\002\277\242U\257>y\024W?\243\035\311\276\350\\e>{\275\245\275_N\275\276\177HN\276\025\324c>k\242\364\276>j\t\277\204\t\212\276\335c\234>H\325\010?\017\241\007\277\322\365\n\277\360\361\351\276\245\214J\276\006L0?\364\234\342\276\246\242\020\276\213H\261>\3347\\\276\3262\'?\375\203Z?\214\013\230=\225\370\203>C\312\266\276\344<\244\276?\033\247\276\233/\344>;h\177>\034\367\243\274=Y\313=\373\240\310>]\200\020?)\034.?\271\3269\274S\"l\276\244\214\255\276\222\n\030\277V\305N>Z^\260\276\341\304\223>\"\230\005\277\371\n\036\276>\311\261=\016,\365=D5u\276%N\032\276\317\010\374\274\221W\032\277\325\272\010\277\300X\005\2764$p>1\276\223=\336L\252=\230\355i\276\311\255\350\275(\213\320>\231*\026?\212@\331>AY\203\275\206e\177>\244(\252>Z\335)\276\317\314\245>.\241\236\276\340\213\233\276\277\340\031\277\021\272\032?H\221\237\274\215\245\023\277\217[\000\277#7.?\024\3667\276}\340\267\276\030P\313\276\374s\366>\177\013\253\277\224\351\267\276vR\007=Ni#\275\346\367\356\276\371\232\270>}\255\236\276\025pF?\014\223\232>p\237\373\275\312\\\336\276\004\302\312=\271V\236\276\374r\230\276i_M>U\2635?\205\000\345\276\212\251\032?e\240\365\276\"\2015=D{\253\276\276Z\253<sd\266\276\236\314\213\277C\324,\277\2765\264>\361)\352>\253\034*\277u\264\266\276]\306\310\276\225=\270>\313\321\327<2fR\277l\351!>\240T\371=\375\235\317=8\342\356<\321\352\206=K\225\231\275Gm\t?B\207w\275^\034:<\332\036\333>\361\005\333>\334 4\275R\255-?Cp(>\361d\345\275q,O?\251\2763\275\"+A?\020*\337\273k\376;\277\026]L\274\236\312|\277;\270\373\276\362\252W\277\263\307\"\2761\337\'\277\037\315\317>\201\371\017?X\226\326\276\333c\001\274\221/&\277sZ\361\276\246M\257\276\034\3261\276\016\3071\275`\244\007\276\'\202\355\276\367\240\215>x\203/\274\325<\367\276\271\332\237>\230\256W?\374\240Q\277xr\017\276y\300L?u^H\276\350d%\276\353\201Q\276\220\005)\276D|y\276\273\354\330\276\337\201W>\232\347y\276\216L9>]#\366>]X\264\276\003\330\354>1\346\242>wfq\276\305\345\243\275?\023:\275\272\034\352>\212\323\005\277\350]\270\276\013\231\332>\324-L\274GE\037\277\366\354\371\276\247r\027>\264\347=\275\362>\025?\304j\003\277\335\347\322>\267\370\265>\255\260\302\276\306\000\260\276\332\021s\2778\236\t?\227.\016\277\3501N\276D\331{\277\257\224N\277\034\0204\276\321\033#\277.\313\263\276l\325>\275n(m\276\004\021\323\276\336\227I?\267\220\205\276\034Z\276\276Y\226\032\277\370\325/?\226r$\277.\244\320\276\254M*\277\202\207\000>^\\\210>\257\334\377\276\007\221\346\276\030\020\222\276\312p\001?\317}\205>\257]*\277\236\226\372>r0K\277D\356\310\275"
      }
    }
  }
}
node {
  name: "tinyLPR/mobile_net_v3_small/bottle_neck_1/block/pw_in/batch_normalization_3/ReadVariableOp/resource"
  op: "Const"
  attr {
    key: "dtype"
    value {
      type: DT_FLOAT
    }
  }
  attr {
    key: "value"
    value {
      tensor {
        dtype: DT_FLOAT
        tensor_shape {
          dim {
            size: 72
          }
        }
        tensor_content: "\360\355\263?#o6?\252=\005?t.`?\351!9?z\234\210?\226\006&?\246\013\255?\326\021\230?\330\004@?\325\313L?\201\242\"?\326\273\267>\305G\363> E??H\301\224?\200ZI?\224D\266>1m\252?X\002\000@\274t\260?\370\212H?\365\210\\?\240\235\270?N\360(?\022\220\027?g\002Q?\213M\372>\312\262\213?\235b\216?\302*<?(\253!?\223\233\202?2\242\001?\024G_?{P\036?\256\330\020?\340\236*?\004\236??r\364\241?\016\2633?n\255]?N\376\206?\377T^?\222\264.?\332t\260?\362\250x?\356\035y?\250\016\271?\"u:?\307\207^?\323\353G?\205E\004?\03064?w\230\245>\202\364\346>\200\024\216?\232m\217>\276C??\221\250\217?0\255g?\261\200W?\021\266a?\212\204a?\036r\276?\326\371\302?\013\260v?\035\255d?\302\343\326?A\246\307?\026\233r?\333Ay?"
      }
    }
  }
}
node {
  name: "tinyLPR/mobile_net_v3_small/bottle_neck_1/block/pw_in/batch_normalization_3/ReadVariableOp_1/resource"
  op: "Const"
  attr {
    key: "dtype"
    value {
      type: DT_FLOAT
    }
  }
  attr {
    key: "value"
    value {
      tensor {
        dtype: DT_FLOAT
        tensor_shape {
          dim {
            size: 72
          }
        }
        tensor_content: "\037\223\237?\307\035\254>\251\250\330>\2542\311>\356\251\354>\363\177/?4w\014?\271\270r\275k\014,?\200~\377>_Q\r?\210\301\321>\036\016,?\274K\032?]\206\353>\335]E?\326\231\027=\002\'-?\246\300\301>\031J\215>\3279h?\232S\023?AZ*?\000\003|?@8\337>F\201\344>{\273\203>\342(\343>\355_2<\362\335h>\222\2368?\320\271\006?.\037\246?q!\263>%\350\234>\215\201\301>|O\275>\305\211\330>\326W\322>q\0227\2751\ts>g\320\250>\205S\035>\033-B>\242\036\025?\220\314\244=;yi\276\207\363\265=\306\201\242<\257m\216?\350]$?\322\353\256>\260a\273>%\266\264>y\261:?m\336\224?\270\306z?\200\244k?\232\324\277>\213\206u>\000\367s>\022<\004?\221\217\262>\0263.?\021AC\276\340nL<Y?\337>\333k\236>\235\tC?\201\014\225>05s\276\304\007\270>"
      }
    }
  }
}
node {
  name: "tinyLPR/mobile_net_v3_small/bottle_neck_1/block/pw_in/batch_normalization_3/FusedBatchNormV3/ReadVariableOp/resource"
  op: "Const"
  attr {
    key: "dtype"
    value {
      type: DT_FLOAT
    }
  }
  attr {
    key: "value"
    value {
      tensor {
        dtype: DT_FLOAT
        tensor_shape {
          dim {
            size: 72
          }
        }
        tensor_content: "\335\317\227\2776\210\216=l\227\034=H\242\204=Q|\207>\202#\263\276\365\321J>ex\346>~\010%\277\353\220]\276\035>C\277\n?\363\275\022:\221?\302\223\253>\356~=<\262\245\345\276|\314\337\276\377\321\323>\233V\245\276\335\231\241=\212\260\205>p\0073?K\225\315>m5P?\352\373\217>(m\203\276TU\347>&W\004\277\270\244\030=\250\217\335\276|\002\367\276\2735|\276Z<1\274\224 \256\275Wl\320\276\236i\263>\035\313\035?nA\013\276@\247\260\276:\177r>\001D\203?iT\225>\3724\223\274SL4>.\314\236\276\377\351\221\276\250\337<?\333\316\000?\0009\253>f\232\251>\016m\t={\214\321\276\004\036\375\275\027\352\204>\343\r\235>\377\032\303\276j\342\320\276\032\243\314\276\310p\374\276,pE?b\276\202\276]\367\313\27644\336>\205\201 \276T\230\030?2\026\301\276\031M\355\276<\004U\277<l9\277\314x\022\277\210\262z? iI?"
      }
    }
  }
}
node {
  name: "tinyLPR/mobile_net_v3_small/bottle_neck_1/block/pw_in/batch_normalization_3/FusedBatchNormV3/ReadVariableOp_1/resource"
  op: "Const"
  attr {
    key: "dtype"
    value {
      type: DT_FLOAT
    }
  }
  attr {
    key: "value"
    value {
      tensor {
        dtype: DT_FLOAT
        tensor_shape {
          dim {
            size: 72
          }
        }
        tensor_content: "T\335\214@H\0323@p\205\221@\201?Q@j\326\230@\324c\024A\235\370\366?\345ctA`\314\240@\3316\216@\377\233\250@\220N{@w\312\030AS\367\010A`\246\213@\2208\230@1b\244@\205\003\274@0.\307?\327\207\230@g;\225@a\240\311?\230m\026A\003_\223@0\277\224@\360m\240@r\320\362@p\205\234@\324\270b@\t\363\227@q \nA\227\035SAa\\\344@=\210\272@\\\316\326@\326\255\337@\211\371\265@y\374\256@\243\354\034Aa\240\030AI\207\tA\350VXA\250\237\007@R\233\376?\222O\211@\\\tU@tG\021A\364\033\001Al\243W@\365\264\277@\230\346\017@\026}\274@ov\245@\263P\220@\034\347\232@\211n\333@\223x\000Ay\330\025A\373\016\200@\320\277\243@\310\017\340?]\345\034A\025\263p@\355\324\233@\3554\337@w\0273@#$5A?I1AM\036\345?\315\201A@\254\301dA\331&S@"
      }
    }
  }
}
node {
  name: "tinyLPR/mobile_net_v3_small/bottle_neck_1/block/dw/depthwise_conv2d_1/depthwise/ReadVariableOp/resource"
  op: "Const"
  attr {
    key: "dtype"
    value {
      type: DT_FLOAT
    }
  }
  attr {
    key: "value"
    value {
      tensor {
        dtype: DT_FLOAT
        tensor_shape {
          dim {
            size: 3
          }
          dim {
            size: 3
          }
          dim {
            size: 72
          }
          dim {
            size: 1
          }
        }
        tensor_content: "Z\352\325;%*B\275\035\364@=\026!\342=\027\321\n\276\332C\370\275\000\247\014\276\322\203\364\275`\267\236\276m\231\374\275)\360\202>F}\241\275\212\177\354=\373Xv\276\274\026s>\022\342\254=x#\226\276Q=\271>|<\261\276e\253\001>\t\021\253\274Am|\2767\272\200;~%|=\031\210_\276\022\006)\2766\215Z\274\313\303\"\275\333\213\222=@\232\232\276\030\005\216\273v\230\270\275\345\320\036>Ogn<\241-\204>~/\340\276F\300\\>\327:\032>}\236\341<\002\331\375>cZR\276F\362\256>-\004\010\276Zf\223\275\366\252\307\276\202\020\232>\335\336->\302`\236\275e\250-\276\3701z\275c\306\204<\342\302\205<\035\352\324\275_\303\235\276\232Fj\276\260l >p4\332\276\273-d=Gb \276n\313\375<1\306\227>\304\353\234>\323\006\243>X=&=j\341F>\004\256B>\2420\260>;\270\033>\366tt\275R\004\302>c\326:\276}0x\274\376\267\361<w\364\002\276\010\t\233\274_\230z=\312v\035\276##r>\036\341[=\326\302)?.\371\213\276bi\356\276*\262\261>eT\202\276\375\314\372=\322\211\220>\264\364g\274  \276=\334\304L\276\227\221\031\276:\223\005\277x\331\007>G\'\213\276\007\326\t?\224\353\020\276\031;\273>d5g\276\201}\334>\230\017\003\274\236V\226>\005\'\267>J\036\225\275\033\216\026\275\275\312_\276\342@\311=\303\250\231>[,\034>\t\357\272\276\265j\324\276\032\023\233\275\343\241f>\255\270\000\275\252%(\277\320\222\315\276\017\323@\276\235\350\004<\267\263\257>\342\322\264\2754\027\313>\365\274\\\276b;5=\221\360\037?\027\211e\274\256\207V>\356\372\273\274\361\251\344<(\202c\276>+\310\276\000\374`\276\302\254Z=\330+\302>9#\030\275\334U?\276\306\375>\276\r\353\321>\346\312)\276\324H\224>\323\375d\276?\264@\276g\216\310\276\311\360?>\376\337\201=\024\304\001\276\277\231\270<]=\364\275\326X\013\276\241\0370>\275h\352\275\251\310\010\275\260\347\267=\277\2130;l\264\323\275\362\237q<~v9\275\313\010\264\275_\237\026\275?.3<\251*\237\276[\370\210\275\234\031\n\276\374\265\027>\020\346)?k! \275\202\227>\276\370\344=;=\016.\276s\274\013\277\313?_\276\013\377J=\304n\247\275\355%\036\276\234\316\007\276\030\240\315=!?\240>\260\001\272>\333\214\265\276\337\201\304\276\313\366\343=b_\301\275\027\212\000=\237\330\344>M\223Z\276\300&E>M\361\332=\200\323K>\316\372\206\276\310\300\262\2753\036\234\276J\000I;\025\264\016\274l0U>\234\230\342=\377b(\275wvx\276\'m\256<\305l\022>CD\311=z\226C\275\266\250\352=a\'?>\337,\"\276N\227F\276g\366\020\276\300>\217\276]\325\037\276\235\367\357\276\006\234p\2767t,>\3426\235<\352\226\356<=ec\276\353;\271\276\025\224\310\275\316\255\006\276~tt>\030T\004=t!\222\274(s\204\276\337)k\275\371A\210>O~`\273\224\324\335\276_&=?l\014D>#\367\360>\200:\213\276f7\236>\252\264\222\276\031\320\270>g3\n>]l\324\275\322\243\t\276Z\344\027\276\rVT\275\242\341\377=\246\326\004?y\364\264=+\346\360\275\020C\252\275\rz?\276\277$\003>0\031\264\2762t\351>\271x\340\276f!\367\275E^+\277T\226\225\274\363{\216>\212X\'?\202\301{;\374Q\007\277\225\212\260\276+\341d;$j\025?*\246\"=\364\264\215=S(K>\256\237G>\356\254\232\276\314\217\035\276i\330\020\275\3078\213?\225\021\r=Z\305\243>\200Q\034>\277FD>\2473:=|\265\275>\225M\204\275L/\303\276v\365\025\274=(f\276K\213\245<\271\242\302>\025&\205\276\00721>;\200\007?\246=A<(\376\237>\032\006H\276]\250`>=\245\326=^\021\316>\216\373\300\275$\233\030\276\014\031\350>\271\022\216\276\033\2421\276\350\327\013?J\275\020?\335\216S?\237\273-?<)\031?\261\336\017?\205\010\244\276\332\037\335>\034\376\203\275\255\236\206\276]3p\276m\237\375>s\004E\276\\\014\366>\355\256\323>b\024\373>\326\234\031?\262\337 \276\250vh\276|~\221\273\'\034\023\277\342\212\022??\363B\275\242\301\367\276\367\261\342\276.\244\t?\211\025\271\276\236Z\331>{{\337>\332\326\221\275\322\312m\276\367U\221\276\356\037\270=.\377\234\276\374*#\277\243\371F\276\377\252\037>\027f\307\276\303\366@\277\3559\332\276r\235\222>\205y\257\276\243{+?\246\373\272\276\226\010\251>\273\361\225<\356\330\005\277\245\241\225\276\307S<\277\321\017\213>mO\265\276h\211\253\275\001\345*?Q\342\365>\003\320o=\262\251\277>\303\303T>G}L\276\364\203\324>\303\230\363\276\021\2766\276\t\230\221\276\003\223\020>X\245\\\276\225q\375>\333\311$\277N\372\025\276\207U\276\275e\217\224>\307\262\247>`\032\372=X\276+?Z\375(\2762r@>fZ\"<\234\312\017=\016R\252>x\211E\275\275\326b\276\303j\222\275\332L\203\275\202\315\360>A\244\036\276YcB\276-yv\276\234\353\365;\266{\375=\"\237\303\276\324\250\231=w{\322=}M\270>p&9\276\322\277j>Y\030\306\274Y\261t>\014\345\267>\227\274\">z\255$>!\016L=G\232\251=\022\034\033\276\266\213\303=X\213D>\253\035\344\276Y\340\273\273\2127V>\257\274\267\275\213\262\005\274w|r>\034_\314\275\n\236\252\276\361\001\220\275\237\262\333\275\037\007\210\274s2\314\275\356\257\237>\250\211\242\276P\342\234<b\257S=\375\332U\276\345\256\304\276!2\227\276%\274\250>:Z{\276+\035\350>\344,\273\275\316\257\357>\266m[\275\342\366\030=r\246\374\275\023xt\276\024\0134\277H\263\360;\217\334(>\021\204\201\2766\200\277>\303\204\361\275\260I\'>\252,T\276z\206\372\271q3\232\276\026\271\323\275\346\311l>\361\2064\276\277E\322\274\\\356E\273\030\256?\275:\207/\276\2536w>\205s;\276\r\333\351\275\254\271\276\274\006&]>\342\271\236\276Gr\246=\340\022\264=`\230\326>\272[8\275\225\377\252\276\276\006\202\276p&>\276\340\202+\275<\004\201=\234E\244>N\363\\=\362\033\220<\326A\377:D\366\265\275\354\031_\276\204m\266\2756\235\350>\023\037\023>\226\343m\276\030zo\276Xp\221>},L=\313\252U=L\233E<\342\336;\276\303Wn>\221#\373\275\024\017D\274\3355\016>b\253s\275\213\003=>\214\343\342=\224py=\006\322V\275\370M\314\275\306\317\017>7\226\354\274\240\014\301>L\360\017=\272\342\364<|\332/\275\351\302\341\276;\336->s\033_\276\025\311\264\276\330\217\000>\010\261\207=\213M\005?k\375\r\276\n8D=\277S\235>\214\210\216\275\014\265x=\023\016\200\276D\314E>p\355[\276$\312\227>\014.q\275j\377\341=:\221\243;\266\262\325\276\213u2\276e&\310>`\'!\276`\235\201\273\330j\335=\362\034)>!\246\004>%\346Y<\340\335\017>;[\000\276z.\363=\336\344\316\276\351\312B\275\352\302\241\276\246\332T\2769\342\344>(\021g>\205\227\322>\375W`\276J^\006>\322\345\230\276`\343\324>\210\220\231=k:\233>\023\022\030\275\334\274\335\276\2775\036\275S\t.\276\246\006\203<4\0027>\273e\034>\006\244\302\276\363E!\276^z\006\275\241\017\276\276\367\270\237=a~\377\275\027$\313\274\245\232\252<\275i0\276pv\354<\3778\217=d\356\372\274\205\251\322\275\333\005\305>\355\353H\276\263\203\202\275\212A\263\276\'HY\276#\034\177=;\2471\276o\032\005\277\\\023\261\276O\310\200\275bz\235=\234\217\336=;\212\250\275[\367\334>\223c\014\276\005%\255>\227\031\303\2769\360\302\276l\030L>,\271\177\275\220[\255\276\313v,>\016\277\334\276L\030\272\275pz\252>\302\322\345\276\214\2715>\366\344\360=\300\335\230>\244.v\276^\277\032\274X\"\223\276o\227\222>\237 L\276<\310N\276\321\201\330<\205?\003\275\216\317\211\274k\n?=\232\344\361<\346\3023\276V\000-\276\343>A>v0;>\367\3015\275\003\272\020;B\371\251=\302\365\371<\326\266\201=\267:G\276t\216\245\275\225p\244>+\205\022=\305\024z=\305\327\241\275Ss\032\276\262\201\202<\004\262Q\276\017\326\230\275\364\312\023>\027?Y=\272\027x=\215\353\270>[\266H>\013\363`>\377+\217\273\035\017\035\274\201\222\210\275\327\223\200\276\241\274\031=+\361\250=\235q\207=*\t\314\274X9\277<\361\215\242\275\352T\354\275\t\266\377<\263_\310\275B\232\201\2724\005s>\335\350_\276\223\320\210\276\361\2552=Zo\245=\206t\371\274\335\017\304>LB(\276\257f\037\275\366\034-=\023y\217\275\023\302\201>\244\013\336\275\342\2642>4\352\274\276W\031\221=b\312@\276\327\337k>\302:z>*\215h\275O8->@\217\250\275"
      }
    }
  }
}
node {
  name: "tinyLPR/mobile_net_v3_small/bottle_neck_1/block/dw/batch_normalization_4/ReadVariableOp/resource"
  op: "Const"
  attr {
    key: "dtype"
    value {
      type: DT_FLOAT
    }
  }
  attr {
    key: "value"
    value {
      tensor {
        dtype: DT_FLOAT
        tensor_shape {
          dim {
            size: 72
          }
        }
        tensor_content: "f\303\226?\321\350}?\303\274\206?o\312u?\267P\200?\2703M?\327\005j?\251\035\206?\354\246\232?x)\226?\356\017\202?s]\224?\347\274\213?ja\232?\371ll?\2662\227?;\343i?\331v\226?\246\303k?8\323\207?p\367\224?\271u\207?\177\302\217?:cc?\244\035??\246\270I?~EN?S\027r?\310\225U?\246[{?\274V\203?\211F\317?r.\221?\t\350\217?\217\341\263?40B?\224fH?\221W\236?\177\373\266?T\304\210?\202vm?=L/?-\220c?\275\267{?\270m|?\236\035d?\356\3254?[\251.?\327;-?\276+\177?\035+\243?\352\343\236?\"}\216?\346\010u?t\350q?K\300\216?\022P\231?c\226\252?\312\207\217?\025\214\245?\022\271i?\314\032\247?\231%9?X2|?\030\267`?y\367n?h?\205?\347/\242?\2039K?\200\2441?\322/4?\366.\266?"
      }
    }
  }
}
node {
  name: "tinyLPR/mobile_net_v3_small/bottle_neck_1/block/dw/batch_normalization_4/ReadVariableOp_1/resource"
  op: "Const"
  attr {
    key: "dtype"
    value {
      type: DT_FLOAT
    }
  }
  attr {
    key: "value"
    value {
      tensor {
        dtype: DT_FLOAT
        tensor_shape {
          dim {
            size: 72
          }
        }
        tensor_content: "BDB>\305\013O>D\327#?$t\323>\225\036L\274\327\257\225>(\214\014\275\377\321g\275\340\3130>\273\300\375>U\020\206?nr\005\276\2621\037\276Z\317\217\275B\212J\276\223\032\361=Y\'\014>\254\013\275>u\t\206\276}\241`\276\n\315C<\013\021\337\274\271\321\036>J\327u=\\\227\323<Ny\016\276\275D\032\276e\013*?g\311\223\275\007\227\315=\305mV?\031\265r=\321^a?\274*\007?\250(\007\274\001\016:?\271\331\243=r\272\242>\035\252\004?\037_\020?&#\025?\236\344P?\035\217Q;\2471h\275\260=!=\234\")>R\331;?@I!\276\236T\000?x\357(?\370b\001\275u\261\302\275\010\360\322>\242\362x\276\302Z!>\005l\025=\3462\025?\'\363K?\204E\217\274\351\255\036>:y&>\217\2010\275o\024.?}\002\326>\035(\016?\022\224\325>;\253\r>\361Mw?\263\031\363\275\246\317u>\016~\'?,,\026>"
      }
    }
  }
}
node {
  name: "tinyLPR/mobile_net_v3_small/bottle_neck_1/block/dw/batch_normalization_4/FusedBatchNormV3/ReadVariableOp/resource"
  op: "Const"
  attr {
    key: "dtype"
    value {
      type: DT_FLOAT
    }
  }
  attr {
    key: "value"
    value {
      tensor {
        dtype: DT_FLOAT
        tensor_shape {
          dim {
            size: 72
          }
        }
        tensor_content: "\325\250\010?\271\342\257<\256\367\217>B\2552?W\236\366>\243\3738=\3363\217<@f\003?<\021\354\275:M\325\276\302\037\255=\210\326I\276%\205`=\033\376S>tv\002?4)\215\274\335$\332=q\027\263>\221\335j\276\300\325\236>1\246\207\276\260\002\310>\177|\202<\211/\\\276\255\224\035\277I\227=>\370\216\363<\337\243&>\343\2773>$l\277\276\361\311I>\207s$\2775\304_?5\223\341=F[\242\276\031\350\365\276D\242^>G\374$\275\201\352\230\276\244\307\201\275\252\205H;\351\033>\276\345\322\341\274\001A\240\275\276\2365\276\213\020\010?aH)\275=\217\216\275\330+\030\277\275\340\303>\270<J\276\231ws\276\\\374\272>/\3001\276\360h\023=D\027\213=\'\343\250>\035\032\036>\272\026\245=\317\363)\277\333Z\230=A\215D\275\203\004\237>\232\201\222\276\010j\302>\013:\354\276\377\'i;f%\376\275\232\351R\276\260\311\016?\004\007\260\274\"\334f>"
      }
    }
  }
}
node {
  name: "tinyLPR/mobile_net_v3_small/bottle_neck_1/block/dw/batch_normalization_4/FusedBatchNormV3/ReadVariableOp_1/resource"
  op: "Const"
  attr {
    key: "dtype"
    value {
      type: DT_FLOAT
    }
  }
  attr {
    key: "value"
    value {
      tensor {
        dtype: DT_FLOAT
        tensor_shape {
          dim {
            size: 72
          }
        }
        tensor_content: "v \231?\037\366N=aC5>\345\022\226>\257\260\021>C\332[>\2338\006>\257~4>\375\260\267>\2727\353>\210\223\204>\334\253\r>\263\235J=\264\3502=1O2>\215\275S?\216\324\242>XT\342=\263jB?M\200c?\3623\036?X\275\336>c\276\254>7\223\372>\0136&>\335}\216=8i\201=\376\n\305=\005z\321=\026\017\322>LM\322=\236z\251>\262\2402?\302\014\241=\250\021\302>\342q\r>\250\\\225=\241\304J>\026;\274>2A\355=\271u\023>\312i\225=\265\3354>\364\314M>\347\023\353=\261\322\315?\300Xr=k\375\221<\257\004T>\302]\274>\331\241\034?+\320\235>\250m\022>Q0\337=\364\335\"=\375\371\247<v\200U?Lw_=\3760\252>\315\252\243?fo\371>\22420>}\230!>9\020\357>\226\260\332>\203{\340>\351_:>{\353{>y\302\003?3uk?\345\325\242<\272\325\303>"
      }
    }
  }
}
node {
  name: "tinyLPR/mobile_net_v3_small/bottle_neck_1/block/pw_out/conv2d_3/Conv2D/ReadVariableOp/resource"
  op: "Const"
  attr {
    key: "dtype"
    value {
      type: DT_FLOAT
    }
  }
  attr {
    key: "value"
    value {
      tensor {
        dtype: DT_FLOAT
        tensor_shape {
          dim {
            size: 1
          }
          dim {
            size: 1
          }
          dim {
            size: 72
          }
          dim {
            size: 24
          }
        }
        tensor_content: "\273g\211>\036~7\276\'\231\233\276s\001\252\275_\353\020\275\177\324\262>L@3\277\311\275\275\276,X!?\210\243\221\275#\270\014>\n\201\340>7\204\255<\217?\224=\261\210\027?MR\252>\261\376\254\2767\240\363\274#\330\010\276\035z\265\276Y\261:\277\334\224+>\263\353|>\325@O\276\306\252\327=W;\202>b\020`\275U\302\223=\372\017\204\276\033Z\224\276\210\322M>\003!\334>\332\246\016>\224\004\017?\342\373\227\275K)0>\305\016\337>\021\357c\276\333*v\276\364\3033>\350rZ>\315 \177>\017\246\204>?oo\274\303\322\025>\350\312\310\276\232\344\361>\350\330i>@\324\216>\\\014\265\273\346V4=\240<I>\327\2725\276\246\2139\275\256l\351=\243\033\006>x\346F=\300\235\037\277\340\020\227>\250\232\032\276K\336\007\275\264\240P?\324d\255=\244iL>\n\340\001\276\321\325A\276\366\216\342>4G*=\341\335\342\276-[V\274\0339\255\275M\277\352=\353BB\275\002k\014>\236\222e>\340\300\000?\005\254\003>\372H\335\2759\020\241>\346\317\207\276\017l\357\276\260\032\223<\201\373\256\276lP\177=\200w\250\275\335\023Z\274\177`\270>]\2012\277\345R\276=(`\027\277dY\340\274\314\256\233\276\0063\\>\'\325S=9]\256\275\344\214J\276\257\236\016>I\252X>\035\355?\276\026lh>\223P\235>\210\373\255\274{\0338?X\312\263=\000v)\276j\177\365=\215\352\007\277\2728\033\277\331c\367\2767\2065\276L\236\361\276\026\200\300\276\221N\020\271\263\241\004\276\257 \203>\315+\203>\1771\360\275\216\2367>\034y\264=\212\006\214\276\032Kl<(\021\262\2744\006\312\274t3O>\317<\030?_\'\006\277H\266\312\276\273\210\277<\237\244\371\273#K\302>\324\242\240\275\247!\227\275\020\200\217=Z\3534\275\357Y\022=\2547\367\275\017\026\037\272?\223$>\340\204\214>\322n\311>\261B>\275\014b\033\277\323[\365\276\254\320\246\275TY\263\274O\025{=\257\266\237>q\256\237\276\360B\001\277\321O\257\276\346\332\333\275\337\034\225>\354O\252\276\312=\343=< \026?:)\207>\254c\253>\336l\335\276\276\000\257=\332-r>\276\347\244\276\320\217T\276\016=\246=\331\203]\276\223i4\275/\301\240\276w\321\242\275@!\216\276\027\217>\276VM\326\276\005\004\372\276\351l\221=_\026\252\276\037MX>&\242>\276\373:Q=\033\032\025\276 \033\263\273>\351\233\276\231q\316>\027\227\253<\203EN\276\223H\376\276\217B\333\2750\017s>\005b!\276\301\204\003\277\256\262\003\276\010\004\'<\354H\002>\024\"\024>\n\231\300\275\247\2747\276\215\277\177\276\365\206\013\275x9\364\276\020\006\330>\310&\024\275\234x\326=\r\217\013\277q\275U>\244\302D\276\204j\017?K\010D>\323\217\202\277o\200q\2768\264\354=\300*\256<\270\227|\275\030;\230>\225\030\307\2752\026n>\343\250\274\275\256\203E=\026\215\265\275\324\212\336\276TIK\274\020G\370\276\372\022%\277\266\0229\276b\312\203\276\031\312!?\337\361\247\276\227\274\003\276\226\022\262>\320A\255;\240\016o\275\360\254\337>\307\226\006>Z\325i=\216\203\354\276\321\272\301=Q\376\240>\31726\276\250nY\274\260\224\271;1DK>\356C\231>\235)z>Xwg=\253\203d>\276\355g>\177\256\201\276\372\240F\276\0242\221\276\324\375\007\277M4\375>\207\2246=i\262@?\2042\260\276\3423\224>\203\375\037<\326o\231=[\224w\275\3472\177\276\253n\240\275\234\261\203>\217\005\212\275G9\306>\257\315\024\277\324\002\230\276\0345\247=\330\311\r?S\267\030>\026\277\250;1\203.\277\332\362\017?\350\372H\277\035\025U\275\007\252\254\275BP\247\276\\\370\005>\304\236-\276\313\360\240\276\334\376\262>\027\000\016\2772@\216>\250*\227\276w\014\226>\372\226\264\276\rn\337\276\274\201%\277\017\243\374\275\306\0267\273\024\020%>7\371\372=\365\373\220>\333{\215>\317\261\233<\251\262\357=V\373\221>\027*\200\276\205o\305=\364*\323<\356n\210\276\324\225Y\277%J\306\276\376\233U\270\256b%\276C\306\331=\006\315\211\276w\006X\276P2s\276\207\271\333\275]\'\003\276\232Gj\277\316\")\276L\374(>.\243\021\276E\207\343>*\034?=\232B\033=\331o\344\276\201\221\237\276\352H\022\276o\374\r?\261\033\037\277Z-\260=]\331\201\276t\325:=\335K*=\331&\315\274\333\032\377\2740\016Q>\026\321D\276<J\002>\253\371\235\276\262E0>\314\227\331>\323\353*\277\225\021\032=\0170\361<v=7;}\210\036?\273%4=\001\264\006=\252CD?\217%n<2,i=\232\374\361<\363\265\265<\232P)=Q\245\000>\202\340L>r&q\276(B\377>\254\2675\277S\263\024\2764\314\330\276\270\200\320\274\004\257\215\276rt\255\274\322\252\353>\220\035Y\276\236\333\345=\251\001\245\276\021\207\313\276\223T\366=\274\216\014\277}m\301=W\332b\276\212\337\221\276\335\211M\277\242p\367\275\263j\242\2758p\262=\336m\255\276\n}t\274\303\305\351\274\274\3401\276\343@\340>%\010\231\273\353-b>O\215w\276\270B\221>\307\310]\276\302St\276\207\0223>h\313\273\276\'u.\276#\3617\276\017|\301>WN\341>\331F\007\2770\360\204>\215?\314\274\360mQ\276\307g\357=\337d\360\275J8\213=\360\3455\276\275\331\000\275Y\333\232>\243\241\235>\017\237\005>y\350\274\275?\274\323>h\322.>I\312\311\275\335\216}\276\243=\310\276m\n\254\276\234\225X\277\275\350\221=\212an>TD\217>\205V\376>B\364\334=T:\210\276\320\300\220\273Q\006\342=r\'\223\2765L\365\276t\215\201\276\030\262\007\277\020sX>)\200\032?W!\021\277.\360\007?\027E\001>\247p\353>\r\033\210>\251\226K>n\377\273\276\301\177U\275\362\225\215=T6Q>\014b%>U\252\037>\277\273n>\323\340\267\276\307\236\023>\022\371\274\276\220\335\275<\234Z\257\276\341\002;>\372H9\277\350\035\274>\210>*\274\337\235c\276\304\303\276>\033\301\325\275\336\343\027>\344\315\314<!\037\033>l\0177>\316\326\031\277\235{\235>\351\220\020\2769D\215\276\236\321z>\034\376\371=%P\310\276\"\177\252>\224\357\252\276<\"\340\274&\350\026=e\347C=U\211\r>\303\316\024\276w\357d\2768\336\202\275\20165\275\205\214-\276\004\235K>\371a,\275j\021h>T\025\020\277iX\304\274\332\'@>#\306\264>-\273\212\274 \313\006\277\017\0268\277\001\214\213\276\365\301C>\227Y\236\275~J\321=\005\2047\276\203\303\244>\337ZL>\213\325\200\276\270\247\226\276\222\332h\275?\217#=a\265 >\307+H\275R\177\345\275\211K\273>\217h\034?\"\235\365\274\336\"\322=\360\307\250>`\262\270>\374c$>-(\304<w+\276\276}\332\021>\222\335\211\276\ta\342\276\302\205\227>\200\373\013=<\377\351\276\311\217B>\242n\r\275\021\336l\275\351k\367\276(\251<=\3008L\276\345p\357>kx\357\276\177\202\031\277`\233\253>\334,L\275\232\237\203\275L7\321>\352`\027>\315`\256\276\275L\207>\320\221.>~3J\273\001B\370<\007\261\201\272\036;\352\276\376\371\221\276\306\253\235>\024j\013>\006\024\206=\021\2424>\204\332\201>]Lk\276\350\230\207\276\2366\364>\255b\250\276.9\340\2755{\244>\203\014\377<n\263\213>@\373I\276\261\010\343\276%\231\335\276f\314\203>\217\253\222=D\035\242>\"\006\237>\300S\030\277\010\231J9(\004G\276\361\030i\276/8A>k\333\204\275\002n\017?\267\336\005?\2007\036>\265\3560\276\321l\327\276\365i]>b\'L\276S^\233\276\306\344E>\035b\306<\352V\265\276A\004\037?,:\320=f\237\017>u\200\213>U\242\006=\326\023\014\2761\366s\276}\326x\275\311A\200\274ci\321\274H\324_>\220\351\014>#v\365\275\230\035\023?\267^\266<\262\200\363\275\246\311\n>\370M\225\275K\016\312\276\014LL\275\302AB\275N\035\234\276\177s\335:\'\372\377=d\033a>\340\002%\276\224O\036>\341\r\t?\356\"\316=\3137 ?\265\372\271\276\232\372\271\275\270\005\263>\207ds\276\222Ps\275\324\037\224=t\026\024=\327<\314=\311\234+\276D\345\n=\244\320\346\275\204\314\031\276\251`\374\276\'\361\200>7\033j\276q\371\242\2768\337\002\276h\231F>\365m\026\273h>\030>\306d\335=\360\234\304\276N\264l>\022\027\241>\335\365\332=\032\020\225\275\322P1>\272\261\005>\277\242\245\275\225\001\017\275\2042\215=Y\341\007\277\022\216i<\022\022F\276\013\205Z\276\242\245|=\226\372\227>\253\342\005\276\007\203\231>\261\353\007\2775\231I>\356\274\227\275\000\355\205<\333\017\001=\220uK\276\256\307\002> \327\335\275\313P\253\276K\311\364\276\236\"\362\276\247\324s\276t\261\224=\373@\243=)\222A>\225\223~>\221\221\342=\332\3213\277\264\001\226>\000H\350:G\030{\276d\317\005\276\216;\264>\253\330\231>#P\002\276\331\035\326\276B\004\313\276E7T>\013\304m\275\275\021\356=\363\3534=\324\\\273\2750\333&?\374bD\275x\347\223=\200\375\213>\337O\340\276j\354\215\276\215\332+\277\016\224%?\354\200\212\275nAc\276\023.\223=\261G\314\276Y8\272>)RP\274`\266S\276}6A\276\3477\323\276\'w\341:\"rd\276l\376\252\275\307\212\365\275\2170\233>2\313\r\276\333\237q\276\006\250%\275\343\"\347=\253K\373\276N\221\337\276L\0004<\324y\215\276\372m\271>\225\224\214=dn\244\276\357\227\327=O\267\342\276\033\n\313\276\273\373x>g%*\273\324N%?H\016)>\273\346a;p\235`\275|K\035>\217\014Y\276\303\305\227=\323\313\203\276\305\341\234=\234\016\205=\240R\244\276\0239\275>\301\226\227\275%\311\200\275oP\321>5\316j>)\331z>\352\376\203\276\212\355\027?n\243:?\226\231\007>\203i\t\277M\201\030?\204\003\251=\177\t\245\275_\262w>\361\377\271>\332\264\244\2767\343\364=\270\317\206\276\033.Y\276i\230\246\276eg\305\276n\276X\276:\021\343\276\327\200\232=\217{\356\276\203\351\017\277\267H\347\275\346i\n\277g\307V\275\005\177F=CVG\276P;\221>\234\202\272\275W\244\240;\326\223\006?0\246\032?\362\213e\276l\177\210\276\324f7\276Y\353\377\276\240\001\215\276k\345\263\276\271\016\244\276\362#\002\277\335D\343\276l\347\275\276J4I\277~I\366\276\021\305\274>\215\245 \276\311B\374\276\373\344\250>\014\232\014\276\260\013?\276\246\264\007=\215\235<\276=\273\220>\374!\375\276\356>M\276\\\362\200\276\0301]>\361\302\300\275\275\210|\277\317Dm=\374\256\272\274\020\212\017?6\235B?\247\372\321=Gd\210\276\345\007\204>\232\301\361\274\302\326\342\276\013\372\263>\274\023\336>\355\311\t\277Nl\201\275\rI\006?H\321\315\276\375\014\366>\330}\323>jX\275>\004]\207\276nOO?\326\'\344\275\376\000\207\275\260y)\276/\205\260\276}|_\276\030\223\000\277\244\316\227\274\233y\312;\324k\341\275gE\362>M\257\004\273v\230\314=\315\277\233\275`:\035\276\017\030\360\276\rt\034?\014O\275\275\0230\272>\317\022\235\276\341@\216>\377o\360=\026\374\256>,+5?\307\274\271>V\307\334>\254)\276>e,\330>OQ\005?\360W/=\027p\000\276\230\273L\276\272X\007\277R\366G=\333\241\241>\\u\017\277\302dt\276_\017\004?*\271K=\265\3435?\327\315\235=\374\202\220>)i\335=|\332\031\274\254\3153\276\361s\372=(*\017?\302)\311\275\037\272\203>\235\304?>[T<=\210V4>\205\177\241\276\243\200\300>\2027@\276\024;\265>\227Y\014\275\000\312\214\2764A\234=\210\032\267=U\2739\275\0067\357>o\027\342<\2326\204>\264\322\025\277\213\320\013\277\353\307\223>\010\t|>\035r\200>nP\304\276~\005|\276\014)\014>[\271\177\275B\303 \277\276\264)\276\246\315\337>9\200\035\276\263\212\205>\253[V<\264tx\276\264#j\276G\014\317>?\321(\276I\236\222>\315\237\247\274Ra\010<\035\007\211>C\024\000\274\221]\002\276\251_\r>+i-<|!\326=\310\003\273\276\004\360\006\277\t~\302<\222\021\327\275\000]\022>c\273\021\277\"\2015\276e\311\032>\021\221\204<\246\236\317=/\250\000?\374\316\002?\3555\002?h-\020\277Q\242\330\276\037:\235\276\010\376\235=\031,=>\307\257|>\354^8>\333\311\3109A\t\367\276\333#^\277\302\364z>\351\035\311\276L\241\221\273\304+v>\370\266v=\030\030\004?c\027\367=g\245\353\276\001\263\035?W\247\250>\224\336\210\276c\003\'\277\341\267\366\276\326\333T>\263u\000<\023\234\004\277hc\376\276R\250\014\277\322\313\227>\026;\022>\256\006\344=\225\323\252>\027D}>\225\247\223\276\225]\221\276\222\032\327\276cZV\276\2356\265\27619\375>p\222\305>\305\267j\276\245`6?&\020\315\276-K\227\2732\270\221\276\311\301F\276\360\343I=w\221\n?\334\375\030\276\264\361\t\276\223:L\276v\225\002?\343V7\275\217\246\022\277T\373O>\3452\307\276r\315\234\275g\246\205>\314\277\030\276\216\357w=kD\355>\325)\361\275\262\375\023>\316\370q\276\037\223\251\276\237G\310\276)\302\030>\321\r\252>a\351i\275h\204\257=\264\200\t?=bQ>(/\023>`\220\367=>\342U>O\241\031>Q\004\001\277\3779e\276\037\t\306\276\006p~\276\301;\317\276V\332\365\276\213;\350>\002\177\274;\022J\341>\036k\340\275\342\206\370\275\224!E>\262\\\336>\334\350}\276\271 j\276CO\215>\020&\266\276\367\303\314\274\263\361\367\274\311\264?\276d\321\016>\010\217\357=\330NA\2752\265u>\262\235\260\276A\005\335\275_\007\026>\226$\337>\265@\026>\326\246\241\276\225\010\343\276\366\264\354\275|\332\243>\230\222\"\276\305A\026=\032A\225\274\366\317\363\275\331R\204>\335\303\324\276\314\t?\276T\226F>U\331!>\2154\221>\210\353\303=\276 X>\240z\363\275\234\037\275=u\016\233\275\245\361\330\276K$\375\276\316?\007\2761\000\235\276\363/\255>\245\273\345=\325\373L>\360 \363>\276\315\005?\231L\314\276];(>\320\236)\277;(\236=zxL\275\235=\253\275\325\'\034>\365\227\222>\271\354]=7\r\336>\312\277\233\275\021\217y\275\035\371\211\275\"\031s>~\226\210\276(\330`\275\351]\265\276\005\033|>\216S\365\276\370\263\236\276\302\307f=\253\245\344>\323\006;? g\002>\327n\202=(\352\n>\221kB>n\247\315>\301:\010\277:n\020?\245\325\264\273\235\267\377=\210,\223\276\004\'J\276\n\223\251\276O\273\377>[\232\222><\010\\>\030\337\277\275\021\363V\276\014P\n>|N\007=\375.S=uS9=`\260\007>\323\037\036?\320\025\244>\025\256\351=\272\310.\274\317J:\276G\350\225\276\341\001\207\276\210\201n>\215\326D\276\'\211\276\276\211\242`\276\375.\222\275b\211\014?>(\360=R* \276\033\013\232\276\326o\024?\3506\264>=\312\033\277\355\330D\276A\327l>\276\037\305>\251\005T>\255\r(>\254\203\260\2760\2460\2760\210\310\276\206U\352<\350t\014:\227\355\200\276\350n\017\277\337&!\277\020%\004\276\314D\246\276T\207\306\276\320\336L\276\303\342\026\277H\021\210\276aVR>\370\252\275>5\032\200=\326\340\356<\214j\035>\262\352P\2757Z\021?\214\013\017?\337\226\270\276V\t1>E\275\267\276\024\377?>Y\346\215\2756\005p\275\325\222\256\276\257\265y>b\256\005\276\255fU>\242\305\336\271\270\247\216\276\016\365+\277\312\367H=\340~\235\276\303ci=\353.\243>e\261\307<.k\025\276\322~\002\276\324\335\221>\322\354a<\2161\263=\317\241\212\276\352\006\264\276\nY\204=1\365\256>\340\244\356\276m\007\234=$\317\244>l3\031\276\375Z\n<\210\234=\273P\211\247\274^C\210\275\216\361!\275\200n\363\275\233\005\201\275\277\305\266>\0136\025>,\033\210>4\366\350<>\305\035\276\257!\372>\350\311\t\277\3539\315=\320\200!\276\360k\207<S\270\372\276M<\226>\342\320\314>\241\304\021?\225\226C=\327\246\202>fr@=\t\342\311\275tP?\276j\023\"\276\202r\003?}\220\215>{\216|\276.\241\362=\010\237\272>\004\025\r\277\026\243M\276\364\241\231\276\346\033\272>E\006\372\275\351\240\204\276\334\253\032\276\237\3534\274z\253\220=\2404\353\276\r\025\235\276F\007\342>bs\004\277R\007\345>\001\377-\276&R\225\276\231[\034=_\020\n\276q\274z>\347\240\330\276f\275f\276\344=\363>\322\207\250>\334\347)\276\377H\246>oy=?\312\332W>5\344i?ry\211>F1\211>8\234\263\276\020\361\266\276\312\001/>\177U\375\276YL\201\275S\356\277>\213\025\233\276\0064\003\277\265&\260>./\234\276\037j!\277\252\366\327\275\274G\240>!\234\n>\\\276\013?k\025\233;#\237\007\277\"\354\235\275\356%|\275\270\020\322\276\210Xp\276ja\374\276tR\222>&.\226=\275\362\233=\222n\302\276g\315\033\276#s5?\343\263\347>\272\201\244\276~\226H>\313g\001?n$\036?\310L\210\276\202\010^\276\272\224\223=\246\214\236>O\016\032\276\274\314\240=\247\347\334\276\221\221\200>\256\207\t>\024:\251>$V\251\276\3155\274\276\270\001\017>\211\036\"?2Xa=y\023\377\276\2343k\275B\210\206<\027\340R\275\022\351\036?\026\313E\276\027\016)>\201\371i\274\3559\275\276\215\317\235\276\344\'\014=\2742\334=\316\313w\276\010\271\363\276?\315\022\277\356\275\331\276\226\314^\276\230\336\270=d\372\374\275\324\357.>W\314\251\276a`\004\276\247\034\202>~\000C\276\036\037\304\276\324\177\252>F\274\r?\377\250\250=\360\272_\276\222U\265\276\341\233\303\275JV\021\277\364\356\332>\302\242#=v~\304>7\021\251\276uE\306:\325u5>*\200$?\365\003\324\276$\253\2569\033`n;Ds\201\276\274\023\263=\026\355#=\035\250\363\275\231\203\006\277Jf\024=$-\t\276\316\030\t\276v?\317\276\3457\220<\2000\270>\307\304\362\276#\236\265\275\347\374\313>\270kx>\220Gf\276\361\267\207\276W4&\276\327\377\003\275\241\377J\276\315[\377\273l~\206\276\240r\r> \236\342\275i` ?\252\364\036?\263\ng>;\253\223\275\241Li\275:\233\006>\363N\244\276OQ\263\276\2358(\277\372\'f\2762v\037\276\247\240\367\275d\334\376>\362C\216>\2264\r?ZH6>x\010\014\2776(\303=x\2406?\261y>\2766\334U\276j\010\341=\255i\252>\020\205A>D\326\242\276Y\367e\275\236W\360\276T\271\"?\212c\324>\316\222\336\276\365&\031\277\356\211\250<\335{\251>AW\017\277\2300\346\275H%\362=\335>\374=\265\010#>\343\232\303>\027\273\272>\370\023\266=\262\305\364\275\016\023\263\276\203\242\327>#\005\210\276\014d\222>\221p\373<R92>w\272\'\276Mc\016\274\364u\373\275\tj\227\2750H\226\275\252\357\256>\010\357\303>\217\003\034?\202R+\276\210\343\222<\014\373O=\306u\343\276\244\314\347\276\367P\350>\016\177b\276F\313\035\275s\242->\362>\313\275\305\010\000?i\006P\277\030\350\t\276\323\253\371>\244\223w\276\374\262~\275x\177G?Nn\241>-\311:\275_4\005?)]\332= ~\027>\341+:\276/\036\006\275W\377\016<\277\037\250\275Ic\250>\214\206\205;}\355\213=\343\364\024\276\362`Z=\303F\342>yZ\356>\261\241\177\276\223\211\224>i-\267\275\010\215\352\276\251\216\222\275\221\362T?[\002m=\353\306\'\276V5\232\274-\274\364\276\224S6\277Z\320\265\275\350=)>wF\336\276G6\245\275\270e\203>=c\334=\203\340(>A\326*\276\253\024\207<\272ez\276\333)\254\276\315\357\037\276E\010\376>/\007\356\273LC\016?\3114\214\2767!\010\277\306v\003>z\014\257>#\024\232\275\250\354\305\276d\343\004\276\352M\311\276^V\337\276g\202/\274\333$\237=\235\367\227\276\027K_\276\321T\362\276\353Xq\276\342\364\315=H\366\262=q\306\310>\347\347^\276o\212\233>\217Q\362\276(\010%>x\2005\276\272\332:>\t\025\374\276\317\256\245\275(\351\253\276\322\222B?\020\271\245\276_>x\276X&\221>w\3065\275\302\020\335\276\270\355\300\275=Q\022>\325\364\312\276m\3068>\241u\242\276\243\013*=\364H-\276\317\340:<\"(\264>4\352\034\276\317\301\233\275\3610\353>\376`V>rn\254>\r\025\002\276\314S\217>\001\243q>\374\233\032\276=\247>?\321?\302\275\253\215\017\276\301\202\273>C2\005\277\316\262<\275\362\222|=\362\\u\276\335\374\316\275\323\2679>\3573\207> K\016?\377Y\">\244S\217\273\367\036\276>H\365\360>\030O\270\276|0:>\331R ?\2679\312\276\025\333T=S\376\272\273\"\301\261\276*\010y>\374x\272\275}\366\025\276\257N \276\260\315`>\275\275\213\276\364n7\276+\262\016\276J\3554>\260\313n\276\322O\031\276\027\032\027\277\255\264\225\276\365\234<\276\312\367\343=\240\220\250>\r\351\244\274\323\3244\276Y\207;\276\371\221\003\276\343\255W\276\237\023T>\004\000\037>\351\237\246>\366\262\305=@\025\250=u\323\251>\353\214\003>5\260\233>O\'7\277\365\223!\276\003\206\223\276\036Z\225\276\307j\001\276\215\026K\276<\202?>\t\271Y\276\252D\211>v\216\010\277j\233\021>\321\346r>E\351\214\276\031\222\002>K\014\373\275\340h\033\277\215\202G=\257\275\364>\251w\343=!B\326\274d8\017?G\257q\275\322\274\206\276\211\302\357\275e\335\322>\243S\203\275\317/\033\276\365I\223\276\032\237\234\275\010\251\007>\301\337\332\276\220\220\321\276\336\374~>\013Y\n>\256:\242=z\302\235\276\036\360\262\274B\"_\275\240H\334>\241\016\240\276\324B\014\276\277g\035\276\315\222\223>\344e\003?:\222\216=\310\377U\274\034\237\005\276\364:\261\274\013W4;\356ev>\017\244p\2769\347\010?\326\022\354\275iD\000?\342$\217\273\026\374N\277\030\006\345>\215\311y>\226&\027>\366\211\237=\232<R?\366m{\276Z\370\024\276\204\261\330>\336A\315>\014C\000>\367\373\212;\327Y\325>\004W\001>)\313\004\277\201\'\252\276)\037\254= \232\276=\223P!>\tS\354\276\277\342\275\276\374-\224>C\354/>=\232\231\2768\375j>\311\251\035\277\251\257\017\275\257~\267\276\260\343@\276%\305\326\274_dr>\230\343z\276\356\251]=\257\016\025\276\031\210I>\251\n\226\275G\031\241\276\0268\221>*\311\013>\240\314\333<\370\303\363>\0261-? d\214\2765R\200>Q\242S\276\2405\036\276\245\251\271\276\351gZ\274\204\271\214>g{\016\276\340\021\367=\242f\212>Z\233*>\211:\336>B\230\255\276a\203V\276KN\231\276\335*.\275\022\230\260\275\3547\027\275\237\033\207>\013xr\2762\3464>\026&\223>\021\317~;?\353\002\275\343\331\257=Q\333\033<\322\377\263\276\333\310\367\275\257]\264>\236c\023>\014\272{\275u\252\302>\334\315\357\275\223\243U\276\305\316^>\363\354\310\275@Q\337\275@\020\037\276i\375\005\277\332\010c>m\262\330\274\021\337$\276\341QZ>n\376\325\276YM\347=\321\203-\276\271]\241>\311-u=\214\022\377>\270*\022\277\t\371\261>~\261@=\377w\205>:\212\236\275I9\224\276h\013\254<\351\321\264=v\302)?\235\345\032>>\215\023\277\\\022$\277\340\313r\276^\001\005\276@~\200>n\256\371\2768\241\263\276\242,\224>\000u\342\275\247\330\246>u\004?\274\240\277\324>\303o\243\276]M\005\275,Y\027> Z\244\276\216_\334=\252\240\322\275n\306N\276p\346\034\276\344B\210>\245\375\211>\271\231\202\276"
      }
    }
  }
}
node {
  name: "tinyLPR/mobile_net_v3_small/bottle_neck_1/block/pw_out/batch_normalization_5/ReadVariableOp/resource"
  op: "Const"
  attr {
    key: "dtype"
    value {
      type: DT_FLOAT
    }
  }
  attr {
    key: "value"
    value {
      tensor {
        dtype: DT_FLOAT
        tensor_shape {
          dim {
            size: 24
          }
        }
        tensor_content: "o\201\277>\332\207\266>\246\027\023?T\027\310>\271\017\252>L\347\240>$1\312>6\222\310>%\016\202>\325\270\230>\\z\317>\230\276\241>5\347\227>\006\017\310>\207\177\352> S\334>\375\370\013?\220!\346>B\254\312>\250\005\252>\271\336\337>\020E\331>u\241\204>\377\232\223>"
      }
    }
  }
}
node {
  name: "tinyLPR/mobile_net_v3_small/bottle_neck_1/block/pw_out/batch_normalization_5/ReadVariableOp_1/resource"
  op: "Const"
  attr {
    key: "dtype"
    value {
      type: DT_FLOAT
    }
  }
  attr {
    key: "value"
    value {
      tensor {
        dtype: DT_FLOAT
        tensor_shape {
          dim {
            size: 24
          }
        }
        tensor_content: "f\310\000\277\201\335\216\276{\2014\277\034\3351\2766\034\252\275\021\300\221\276\327o\337\276\271\356e\276\203\207\355\276\2176\t\277\337\320\301\276q{\t\277\030\3106\276\275\031\235\276\360s\376\275B\345\237\276\256\230\022\275\270\276\240\276\215y\350\276\213*\006\277\217d\232\276\370\227\355\276\231#\237\276\016M\361\275"
      }
    }
  }
}
node {
  name: "tinyLPR/mobile_net_v3_small/bottle_neck_1/block/pw_out/batch_normalization_5/FusedBatchNormV3/ReadVariableOp/resource"
  op: "Const"
  attr {
    key: "dtype"
    value {
      type: DT_FLOAT
    }
  }
  attr {
    key: "value"
    value {
      tensor {
        dtype: DT_FLOAT
        tensor_shape {
          dim {
            size: 24
          }
        }
        tensor_content: "\321a\007@\263\325\005@L\345\"\300\313\315\257?7\2302\300\016\261G?\312f\240>.`\334\277\277\002Q?\002\177c\276\236=\305?\323\206\220\276\254\236\215?\347f\004\300\253d\361\276\230\247\233\277e9\245\2772\345k\300,\305\374?\334\343 \300j\234f\300\363a\276?\025/:>\247\363\245?"
      }
    }
  }
}
node {
  name: "tinyLPR/mobile_net_v3_small/bottle_neck_1/block/pw_out/batch_normalization_5/FusedBatchNormV3/ReadVariableOp_1/resource"
  op: "Const"
  attr {
    key: "dtype"
    value {
      type: DT_FLOAT
    }
  }
  attr {
    key: "value"
    value {
      tensor {
        dtype: DT_FLOAT
        tensor_shape {
          dim {
            size: 24
          }
        }
        tensor_content: "\212\\\316@ny\217@\306\366\010AG\277\334@L;\032A\020\327\267@\267\211\003A\341\372\001A\346f\210@\240d\240@r})A\306\002\242@\320\377\260@+\325\270@\227Y\371@\"\250\261@=~\030A*UFA\255\006\273@\317\035\333@@OOAB\241\034A\026\032\223@\224\017\275@"
      }
    }
  }
}
node {
  name: "tinyLPR/mobile_net_v3_small/bottle_neck_2/block/pw_in/conv2d_4/Conv2D/ReadVariableOp/resource"
  op: "Const"
  attr {
    key: "dtype"
    value {
      type: DT_FLOAT
    }
  }
  attr {
    key: "value"
    value {
      tensor {
        dtype: DT_FLOAT
        tensor_shape {
          dim {
            size: 1
          }
          dim {
            size: 1
          }
          dim {
            size: 24
          }
          dim {
            size: 88
          }
        }
        tensor_content: "\350\023\346\276\243\214\364\276\204y\031\277\036`\234>\373E\327=\375O\274>\215\3046\277lv\255\274\017\215\267=\242\033\005\277\334xQ\276\204g\177?\"\003\024\275UxZ>\'\005~\276\266\002a?\256i<\275P\351y>\334\361 ?\205\323\335>_@\013>\323D\005\277\315\033Y?\275CM>\201\177r\277\001\010\020>L\032@>\"\340)\277\273\365\311=\240\236\231\276\t\231*>M\355#>\"\2609>=\tO\277\353\272\210=\350\002\246\276W\254s\276\333\244\277\275wh\236\276\265\021\320;\343g=\277\024\324\210>\301\2348\275j\303\006\277\272\007\004\276.\261-\276\251\270\203>\272\267\242>v\324\214>\316\333\244\275\372&\244>\256\325\321>&\347>>*%|>\377\365G\276\025\353\203=\264\334-\273\253*\213\276D\035\327=\\P\277\276\265\373M>\371`\024<9\366\034\275\357\240\242=J\027\031\276\237\313\351\276\332\033\037=\030\210g\273\344\017`\276}LZ\276\227]\202\2762\004\243>\332K\306>\226\301\376>\224\363\353>\377*\241\275\266\204\306=N,?\276e\r7>\274\030\264>nd\031>\353\241#\275\351\244\t?=,\243=\215Z$\277\271\027\211=b\213\022\276;\374r\276S\341\327>\254\\\234\276\355^E\276\004\330S>6G\341\276\234\236\347=E]\017\274\244\306\372\276\201\214\344\276\352\036#\276\217\263\003>U\303\345>NQ\342\276y>6?\027\312a=1\031/\277(\3460\277\002.\305\276\n\016\020?v\330\243\275\010\034\344=+A*>\016~?\276\375\000Q=(\030\n?\004\020\357\276\360\tX\276\347_\220\276)\t\023=\372\207\032?L\"R?\352~\000\276\270\303D>3~\017\276\262z\027?\022\373\034=\225:\257\275\"H;>\370xt\276\263\364\236=A\367\317>\273\255\r?\366\361\241\276w\0264\277\237\005m\276\251vk>1\376)>\340\206<\276i\215 =\242T-\277\272\"a\277\314\003\337\276,\266n\276\260\225\022\276\0100\373<x\007\232\2768\315\343<\014\231#\276~\307\345\276\340\353\314\276|\200\316>\034DL?w\367z\2762\355\376\276\353\r\027?d\347\235>\265\231\317=yT\223\276Z\357P\274\356l\314\276\335\340\343\276<\200\346>\261[h\2776\305\311\276\266^\316<\365\2739\2757\304Z\277*\333\365\276m\350\016\2760\337w\276*\037\277>\r\304\222=p3\311\2761\000\325\276\333!\304=\223H\274=\267\177\004\277\253\255X\276Y\264\016?\212j\207>\356n\000\277$ \007\276\330\333\025=\233S\214>\334o\257>\230\324U>\372m\302>\261vR>\344JN>\217\361j\276TP\334\275^l\373;\310\333\354>\241 u\276\2166\303=\254#\211\276\252\326\315>\242\333\377\276\223\027\255\276L3,\276\221u\'>!l\022?\277\361\204=)\177k=\374\r\254\276j+,\276aP\r?\232\030\307\275\217e\022>:\270R>\377P>?\265\262=\276S\037i\276\340E\315\275\324\326\263\276\027\022X\274h\000O\277+%\330>\005\314\303\276\037\306*\276\246\220\360=\023\220\002<\233\376\343\275\224\371\263>\366\341\005?\243\267\377>Xr\225?\2447\341\276T\223\334\276(i\303\276m\266\r?\007t\372>\361\030\r?{4&>\257 -?%\370\036\276\3438\277\276n\352j>\225\332\276>\223\035O?\335\263\036?\231\220\333>\247\272\020\2775\346\356>n\336\271=K\"\355>h\231H\277\306\246\262\276\262\234\362>tT\251>^\r&\275\202\212\201>\340\004\212?\031|\264\276\241PR\274\3309\000?F2N>\236l5\277\025#\242>\212v\003?\341\322\203\275\317\367Y\275Y\337]=u.\231\2761Q\374=\234G\234>\274\026\304<F\010\334\276:D\346>\025\311\030\276\310\252y\274\355@\227<\320?)\277=6d>\331\366\260\276\213\001\203>\0306\025\277e<\000\276\370Zm\2758\372I>\320\360\230>\276\236m>\036 \243\276\343\020\226>\372N\304\276\372;(\277Iw\224?V\370\014\276\nV\204>(\273\276\276>\014\205=\262.\243\276\212\001P\275\222\331c\276\311R\354>\0309\224\2760\305.\277*w|\276}E\345>\210\213-\277\013%\373>\301\003\"\277\303\r\331\276\372\215t\277\022\316&\277\313w~\276\335\270\277\275\211\325\367\275)\352\336\276\006`\245\276\020\002\362>\236;\347\274>8\'\277\276\356\227\276\231\331\036>\3039>>\034\300s<\245nQ\2760\361\277<\252%g>\377\266N\277N\025\246\276\211\275\004\277\2760\375>l\350@>\005+\022\277\356\310a\276\2226U\276\'U\007?4a\016\276\205\'\013\276\353\025\345\276y\\\030\277!W\215\276\\\261\223\273\374\031Y\276\254\363\341<K\362,>\214\307\354>\\\220\320=\224\314;\276H\236\256\277mds=\357\034\226\274\333\236\364\274\017\313$\276\265W\234\277\212\010\005\277\"q\320\276\213\224\225\276\315\271\257\276TE\010;\026\326\343\275\035y\213>\223,\000\276\252\321\366\276\252W[\273\327v8\275\266\"v?q\250\037>\3159!>Ce\203>e\007=\276E\316\211\276\324\017\256\276\255\366\244>xU\341<\000-\315>\006y\356\275\005i\217>)\022A>(Dh>0\177\272>k\0236\2759\313\251\276N\270^=\216\277\256>\352\t$>\272~\222\276\325ER\276\227\350\330\276\370M\000\277\361\257\276\275a\224\022\275Ht\331>>\031K\2772vU\276\317\374.>xJc\2763V\033\276\203n\316\276\214\033\344>\246\236\'>\325\270\243\275p\236\007\277\307g\205?\017\360\204<\275\2319\276\311\340\237\276\266\252;\276\260\3714\276j\224>?\0205.=./\016?q4\221=\316\305t>\363\213\311\276\331h\253=E\340k=P\260\354>\354\376&?!.\323=\'\266\317;\356N>\276\225\307X>4W->\2511)\277\177\342\021\277)J#>cD\037\2771a\262>\314\320\027\276\263\202\267\276\251c\231\277j\n\000?.\320;\275\r\363\005\277\365C\271>\247\376,\276\217\306\232>\233\266\001\275\240`\204\276A]s\276Q4>\276\247\265\244;\022\241n>\2109H<\177F\356\276+\340\323>\262\272\247\276\313\266\232\276\267%\034\277,\005\372\276\242Z\202?\226\331W>n\226\331\275}kD\276\353=M\276$d\031?=\242\264=\377\"J\276\005F\035?\023\005{\277\357\263\226<I\244\354>[E\247\274:\267\341\276A\377n=\3422H= rD?\265\377 \277\310\253\216>\205\277\035\274\307T\000\276Q\033\'\277\320o\302\276d\007v\277v>\232>\300\202D>\372\363\263>Rp \275\337\000\331>\2667\004\277\205(\357=\323\231\311\275\331\223\007=\027V\353>.\353\307=\213\203\301>?\237\227?\202\340%\274\'2G\276*\326&\276d\177\363\275\203\343\022?\231\276=\277[\024\326\276\311\\\034=h\035G\277\326\0365<VI\036\276\021<\256\276D\013\320\276\371dC=\210\362\235\276\021$\321\276\337\226\217\276\3057k>7\3713\276p]\201\275\001X\030?\2620\257=:;\'\277=\264\332>\222\017\243>\264\t<?\376 \274=\230\351/\277\245\241\323\276\377r\242<B\177`>\213\340\250\275\216\316\021??\305\005\276\363\205\351>$2\314\276\276\331\200\275jm\325>\233x%\276\354\005\216\276c\206[?\336v#\276\273\324\024\275*\261f\277W=\215\275\3569\200>\373\265\217\276{z\313>\247#\261\274\333\366\006\277\255\201\240\276\214U\224\273\341n\331>\240\300\221\274h\252\023\277\002\340\321\276\227\261\316\276}\313\326\276\373\272\370\276\027j\373\276cI\207=H\314 \277H\233\347=m\330B?\016\340??s)q\276`H\032\276u\273~\276\263\351\337\276\017\307\311\276<\303\204>\307y\275\276\246\270\'>\271\267B>\035y\344>3\261\336\276\311\033\375=$^J<+B\303>\213K\224\275\230rb\276\250\260\323\275R\r\330=\032N\023\277\264$\226=L\361;<[\'\024\277|\222\\=g\236\305=\325v\273>\214\233X>\030=\333=\"\276\217\277i5\306>\263r\017\277\261\306\216\276\375\272\304\276|%\244\276%\336\236\275\253u\320\276\344L\223\276\320~\375\276\263\222\247>\273\327\225\276X{h\276\206:\246\276\326\230\321\275\005s:=R\203\357\276\306W_>\347\341X?hE\200>Ev\277>H\304\243\275b\026,=\\k\333>\332\2164=\364\272\232>\253*d>\302h\322\275\210=\304\276\232Eb\275\022\005\023>\204j\202\276\322\020\201>\337\026\021\275\330a\003>\270\302K\276\352\366/\276H\361\002\277\304\330\323\276*?\006?\246\356\035\276\031zh\276S\376\252\276\356\216\257\275\327\310\326>\222\206\310\276J\342\025\277\3719:\276=\037{\275^\357&>)\2721\277\251\333|=_\365\303=\1770O>T\303\321>\362\235%\276pW\254;\326\215\371\275\016\027\215\276\217Q\016\276\321\241\214\276\244\242\n\277\225\367\264>\327~\340>-\020\031>>\201\020?$\345r=\315\304\204>R\t\220\276\274\233#\276Ga\267>/\305\r>\352\313\241\275\026g\003\276k\326\217\276\336\227\241>uh&?\266\234\273=\264\177\260\276j\205;\277\353\216\205?\352\235\240>o#?\276\310\"\224\2764\234t>\333b\017?F\300\r\275s\027\262=)\235%\275b\237\334=e7\023\277xD\027\277\265\001\263>5\3526\276\224,}=\242-\343>\010s\222\276\220\331\247>\2018\272=\375\2655=@\007\262\276\216\273\215>\017\036\031\277\217\257_?\2553\211>\312\366\251\275\266\203c?\"\025\207>x\341\314>\203\030@>\250\177\332>\304\327\235>@\200\304\275\322\240\337>\230\216\024\277\210^\352=\004\207d>6P\244>F\374q\276\303\267\332=t\225\203>~\270\324>\250\210\336>5\256\021\276\223c\004\277\302\026\226<\267\270\241\274\332\026\276\275\316\006\262>k\312\035>\223\023\r\276:o-\276\236/@>\374\335\246\276\232\236\266>xi(>\323\026L\272\256\256/?$\025\006\277\354>\004\277\241\031\230=t\371\233\276{\270\n?*\022\253\275\020\316c=\352F\333\273D\177\000?\330\343,\275\256)\304\276\014\373\010\276C\344\010?W\2607>\277\326h\276\205\035\007>I6\315>5\371\332>g\036\023\277\272+u\277{\222\243\276\213S\357>\214\371\315>\275\220S<\310b\030\276\020\366^?P\024R=e\365,?\353n\006=\357#[\276\250\227\306\276\310\317\244\276\373\\#>\243\266\023\277\252\033<?\335,\036\277\366\034y\275\004\356\"\275 \366D\276)\035\030?\310\036@\275\267\243\251>\036\372j>FxE=\260\031\\\2763\301G\276yK\327>6\317*>\243]E\277\372&??\021\263\222\276\216j\021\276a\252\033\277\031\027\n\277\325V\256>\215_\257>p\341\001?\016\216Y\275\346\325\370\275\335\273\344\275\203@\">\321]\211\275bb\330>\037\344\257>\225\206\233\276\313+\270\275@\036(\276\222\335\013?.\334\027?\304\014\205=\304\310\004?\n\002\332\276\366\271\303=\265\201\337\275+\300\023\276f9 ?U\233^>S\324\220\276\326S6?\177\365\030\277\307\000\252\277\375\2423\276\375\031\247>(\370!?~\316{=\200\317\211>\260\207\237\275\360\374\324\276\336k\376\275\023\341\313<le\261\276?\007\227>?\363\300\276\377\245|\276\342=%\277\201$\320\276m\364\263>\352\203\246>\274\225o\277\351Y\275=\024n\205\276\220[\007\277\277\342A\277\034W\324\276\251\357\255\276Ac\335\276\020(\270\275W\266\346\271\347\034\305\276\\\2647\277\266H\262>\020{y>\013*\r\276|\2513\277\352\356\247=X\357a>\206\305\257>K9\260\276\343x\366\276\275\277T\276$[A\276\2615\220\276\377\211\242>$\317\336>36\317\276\t\236\254=f\261\017\276\252:\240\276\366\353\203\276\217H\217\276\002\241c\275\242\252\030?\203Br\275\202\343\312\276*\344\265\276\347^b\275 \331!\276;\326\237>\273\213{\276\302\242D>\364\233\243=\217N\314\275\3211\342\275\377\nH\277\270\345(>\307\317\311>\220\302X\275\024X%\2771x\321<\276<\211\276\312P\324=\347\321\023\277\225\322\237=\223\n\277\276\366\013\353>\200\220S<\206d@>\265\"\225>\177\371\224\276\371E@?\021$L?\236M,\276X\210\002?\310nS>\327\250K\276poF?\276\342\270\276\004V\026?\241K\364>\'\340r?\230\374c>\300m2?B\332k>[\321\207\275}\277\202\275\005nb>\377\033\253=\001\357\032?\023Tq<\377w\274\2757b\206\276\010\214F>\204\331\263\275\025\245\244>\t\235\244>\225\206\244>\027\n\223\276\001_Y\277\332\203\\?8\r\351\276\033\363\332\275\035k\241>\233\245\307\2767\031\322>pp\246\273\201\346\365\274\017\'\355>\276\235\304>_\340\314\275\224D\025\277 \0319\275\273\374X>\2575(\275\356\314~>\222\016\323;\216k=\277 }\257\275\306\244o>\213\014\331=\025G\023<P\023\234\275\224\2267\276\374\241E\276)\035\r\277\372\300x\276\335\3366?%K ?Q\006\017\276\244M\300>\370J\241\276>.5=\002\206\337\276\254\254\020?LY\206\276\0311\025?9\273\030\277\270\214\265>^\235#>O\266\271<\273V/\276\306\242\033\277;\030\253\2768\233\227\276\306l\263;dh\201\276JMS?\225\273\213>\313\327\325>\'\326\007>cA\000\277\365\344\247\276\025bw>\000\363\224>\233\215T<\364\267\316\276\nQ\020?\233w\247\275\356\332#>,\365\237>\276 \217>%D\370>\013\367\313>\226\312\365<\206\233\200=\346\327\r?\331\032\355>\326\312\274>U!S\276\331\346+\275ca.=7\341|>\177i\224>r\311\206?2\t\263>1\262\252=]\265\321\276\371B;>\353(\237>\331\264K\276\270\362M?\235\340d\275(\025\227\275J2,?\205\357\263\276\344\317&\277])\276\276T\253\215\275L!\374\276D\301\305\2762\232\204=W\216\026\276\363\332\201<\361k%\275\t\313\037\277t\3778>\374U\034\276\223J\375\275\335U\233\273W\312/\276\227\252\031?\003;\302>\0355\224=\232\277\352\276\310C\261>k\333\237\276\'P\254\275\316\272\216>j\222\t?u1)\274N\226;>\003\231\357>\352\n\017>\311\017P\276\177\373h=WJw?\366\226\035>\246\354\223\274\237\235\233\275X\036\352\275\2232M\277h\231\020>\203\307\241=\030\005x\276\375\242t\275\311 \256\276\0317X\277Z\263F?\234\330\250>\214\177\230\275\003\035\217>[\336\257\276\204\246T\275\014\205\377\276H{\005\275\222\005\324>/t^\276\375\366\351>*\234H\275\027\212\017\276\242\255\025\2757\036\225;\245;\260>A\215\'?\345\360c\276Xf\243\276\201m+\276\n\334\276=\207\330\032?r\260\017?\267C\303=|\316-={\230A\277F\323\334\2759\016\232=y\272\273\276#e/?\316W\030\277]\026w=\246Y\260\275x:E\275\367\204\332>\342\273\r?\342\226\320>\330FE\276B\332\361>R\330)?U\357\033>w\r\273<\233\207,?r\201D\276\337G3\277\326\210\272=\024\266\207\276\240\273t>3\376\231\276\260\227\273\274WC\000?\374\317\331>K+\310\275\311\004\373\275\317_\321\276?H\302\276\317\2331\277\314\367\\>\260\307\322\275\262M\252<\305\310I\277\216$\201\276w\016\004=\252\212\247>\"\201\013?\202\333\001\276\177\352\337\276s\033\214\276#\3161>we\316=\027xZ=\373\352\222\276\261\032\031?s\247\351>P|\223\275\332&8?\355\374\002=\357\354\342>\336\000\267\276\263e\371\273I=\300=D\377\343\2760\246-\277\244~7\277>u\221\275\247(\002\277{\027\337\276\275u\033\277p\016\221\2769\212\006\277\024\264\251>\220-\016\275\230\003\240\275;r\321>\341\270!?P\356\027=SXi>?\263\006?\270\247\331=(\204\302>\315\322\354>\223\331\335>\316[>;\227\022\214=+\234\331>\305\220\217=\225B\365>\004\312\305\275l\233\355\275\265g\232\276\336\026E\277\253\321G\274\252p\003\277\021k\r\277\347(\206\276\020\2500\274AY\314\275y\351#\276Z\263\217\275T\300\006?\233\350\337>\2121G\275A\310+?\330\211\n?Z`\270\276]@g?\244HU?\220\021\274>3r\222>\005Y\371=9X\331\274\244SS?\010\325\001\276\016\213\227=.[\201>\313\200\022\276\325\201\332>N\300\301>\t\007n?<\222^\276g/e?uT\302\276\220zX?O\327\263>\325\334\t>w\034\302>\020$\350\276`\314\005?b\333\024\276JX\306\274\210\263\007?\324\336,?\236k\371\274)[\322>\236Q\006?\022]\326\276\276c\244=\264\316\026\277J\004\302>vGr\2766\362 \277\354\306\245>\341\377\364\276\203\256\350>\334\242m=\0073\016>\331\277\233=\212\253\252\275\200*\005\275\305)\255>,d:\276\207\223\225\276\"]\266\276\356O\223>\361+6\276\374\357\035\277\357\363\233\276\342\315\375<\025;\362<VV\346>Y/\234\275%\216\324\274\275\206D>\212\255\033?T*\300>|\213\217>S\2658\276Y\205\004=\244z\307\276\251\314H>\023\363\375>\341G\036>\240wj=\343\351/?\203@`>\201\362>\276\t\331\266>f\341\022\277\356\357<>\242\251\355\276\2607\322\275*%\227\276f\r\025?\342\221\000\277\301\336\243=$\363\324\275H\374,?\0067\224>\027\303h\276\341\341\364=\204\204@>b\256\016\275\312\274\001?\007-\226>-m\261>\205A\203=\377\263o>A\021\\\276\235\260\351\276\303;\221>cE-?b\327r\277}\346S\276\005B]=\035V\261\276\302\260.\276\262\223\333=\224\260\334>R\272I\275\371\226\307>J\311v\276\306S\357\276\202-\213\275\326(\234>\372 \320=\325\214\026\276\202\025\035\275\265\262\207>\200t\226\2760\034\362>\223\027\277\276\366LX\276\2334\370=\270\377\300\275\2458G?\232t;=B\272H\275\212\360\207=Lr\273>d8\313>OV\213<6\222Q=u\354\004\277U\233O\275\276\264\223\276\240\006\242>\034\255C\275S\331i\2744\235\240>\277\375\221\276\364\356\376\275q\024\300>A!\004>\006\2564\2766P\320>J!\365\276V\201B\277=\234\241\275\001$(?\212\363\303\276\371%\021?R\272\027>5\021\275=\312\032~?Z\214J?\377\262*?\003\360\273\275\3122\233;,\233\210:XL\322=?\237\232\274J\275w>\374hp?\320\337H\276m8\263>\366\332\203>P\247\315>\005\006F\277\332\266n?}\026\277\272\374\243\264<\337=\213\276\377\034/\276\022\215\033\277\"u\272\276:nx\276\372\223^?\000Y\344>\035k\202>\257A;>\273\2372\274\005E.?B\261\204?\360\304z>\274\355$\277_k~\276\035\334\302>C}\350\276\266b\004>8\031\236\276\322-^>\004\177\335>\365\216\334\2756.T?\323$\344\2764\277\004>\207\005\371\2761K\242\276\305\035\370\275\240\264R?C>l\274;\321A\276\301e\206>\223)\210>T\232\206\276T%[<\337UY=\356\335\365\27650A\276\253o\334=\\\274\263>z\326\217>\211\n\366>S\311\357<0>4\276\010\360\'>@\\\033?\t\\|>Ur\006?s\346\"\277E\211\324>0\211.\277\202\340\357>\301\331\337\276\220\210\010?\r\335@?\212\3503\276\005*\252>p\362\210=~\320\216>\360\021;\276\021w\224>\320\306\332>\200VB>K\243\025>Y\242 ?\375\334\243>7\371\'?\2452\001?\265\336\227;\347S\017?H\225d\275\036\252\232\275\325\013+>\022\306S\276<\272\301>\014{R\276\206\367\004?\214\311\267=<\274\222<\007\335\241>\336\\`>wG\004\277OB!?F\025\272>\'-\200>\215\233Y>\003N\265>\022<\020?!\032v\276\326\372\r?\036\370\030?g4G>\3605\023\276\326\377\230\275|\224\027>6\316\335>\3157\025?\260\371&\277\240\362\271=\020\365\253>\372s\204<\201\365\302\276\305#\035?\303\344y\276\226\001\016\276\373\316E=\024B:<L!h>\236\277\314<\267\365\271>eK\274\275Tu\230\276su\232\275\276\370\343=\037\351\251=Krc=>\226,>0\205\303>\376\357\'\277\033G\233>8\031\037\274\361k\316\276\217\365\023\275\031\023\033\277\223\267\221\276\252\274\267>\254\022\206>\247\3265>[\333>\277\234~\262>J\344\035=\323\342\376\276z\362\310\276K\315\031;\000\263\270>\231\021\356\276\220$J\276\005\234\253\276\240!d\277Q\225\016?\300\342\264\276T\217\255>\316\005\320=u\342\000\277\317\271\002?\326\330\326\276\231v\031?s\236\245\276\321\356\035\277\207)\324\276\212@\022??Q/<w\006\007>^\203\215\276\357\220\301>\270\203(>\235\177\263<\273\033\304>w\376{\276\272%|\276KC\367>g\006\205>\200\225\307>\007\355O\277\177\261\253\275\017#\007\274\247Xu\277^\314\">\275em\276\016m=\277&\304\177\277\013\233\253\276\357[\212>\210/0>=\247\333\276t\343V>#\305N\276u\325\353=(\361\n\275xJ\303>/\224\027=\177#\326\276\324\300\203?\313\356Q\2765\367\245>\203\347\375\275\364\370\204\276\344\364\340<\342\207W\276s\276\001>z\265\210>\313A\006?\177q\300>\225mC\277\376\272\022?\336kn>\354\337\206\276{\006{=Fg{\276\017n\273>\335\344\035?W\351f\276z\270G>>?\344\276\004\2429><\257\340>\231\354F>\352\351\220\276\256X\327\276\260\027\223=S\264\034>\363\266U\275\201\270\363\275\212\303\372\276M\212i>\357\3341\277*\225A\277\263\3570?\004NT>\207\230&<\272\226\025\277\241\201Z>\365 \273=l\352\352\276\033\006\035>\301(\325>j\303\314\276\332\237\317\275\t;|\276L5\302>HU\252\275\'\265\362\275\000\370\277\276e\231\207\275\362!\351\276\206D\346\276\232\014\364>\024\330\220>\032\007]>\323\304_\276\237\235\002\276\310-\220\274\213\034\016\274\315\"|\276\261\373;>%\244+?\267\2373?\201I\344>\000\266J>Y\006\024\277&\217>?\217\007\275\274b\222\330>\302\031\267>\377\327\276\276\352\267\300\275\351i\274>\267\235\216\276\016Wk=\211\257\322\276\301C\227>\361\212\207\276\275\035\n\276\241oR>\2400\276\276\002\351\204< \303\021\276$\366\221>\205Z\226\276\323\350\031?-,(?\337a*?\203\233\225\276\216\n\370>\273L\304>\262\017\r?\333o5\277\034\007(?\006\262\355\274}@%?\007\365\033\277\347A\224\276\230\3115>_l\327>\025q\021>\212|\360\276\2022P\277&(\260>\327\313\213\276\004\305\325\276HC\332\276E2}\275n\272\033>\206\321k\276t/\237=\235a\272\277;\322\007\277H\206\001?\335\371\257=D|\367<\033\272\'\277\017\"\303\275$\030\365=\205\004\226\276h\rV\277\257a\214>u\261\250>\025\243(\277\260:\007>8w\273>\n\352\3727\306b\310\274x\177\256=z\037}\276\242\246\261\276t\034\377\276/=\300\276\300(7\277\364)\333\276{f\244\276\303\276\257\276\320\237~>\247\013\275>\365\000\323\276\244Jb\276\037:\025\276f`\001\277\375LI>h\206[>:\036h=(\322\020=\030\257#?\353_\016>07{\274R\002\216\274\306\264\255\274e\205\321\273\245z!>\005\255`>@~\355\276w\357\006?\202\315\314>k\210;\276\263t\272=\200\343\346\276N\200\262=\020uS=\367S%?tS\211>%\241\365>o\032\241=\204\374Y\275\022\313\207\276\035\245\212>\306\241\322\276\333B\r?\036b\254>\204\224\227>S\016c\277\202@\337<\371D\203\276\356\337\350>\001Q\365\275\371\211Y\275K\210F\275\177\006\321\2761\342\010\277\3701\370\276\236.|>\377\223\305\276~\224\350<\374\000\321\276w\325M>M\235\345\276}\334\211><\301N=\273\246\260>\216\301\006?\201\250@\275w\177\242>\"_\224\276\226\021\033\275\203\256\310>=\214\010\275\200\276\267>Q\252&\277[\261\032>\n\311\223\276\357,\037\276Z\341]<Fyl>\237\323\267=?\335\327=-gA\276\333\\\241\273ZA\206\276\247`\006\277\355B\325>\350o\332\276\371\222\315>\027~\320\276)6\033<\361\207\303>\377\313y<\243\2638?\214\330\226\275]!\262\276E%k>l\254\255\273\377\325\376=s\201\023\277\016w\017?_\234\031\276C\350O?\325\351\326>\225\251\211\275P\322\022\277\2556\235\276\364\000\006\2776\350 ?P\253(\277\365\240R>\245\244\223\275 f\316>=\025V\277\361\340\214\275{\355g>We\253\276\305\332\300>\372\251\035<t\022\244>\035\004(?1\266\016>^\005\215\275\277\032\033>R\253\013\277\332\316\310\276\2241\360=\013\257\224=T\200-\275\375\236b\277Q\262\227=\251\037\344>t/.\276\363\257\225=\371|\372>a\334Q>\247\'\344\276a\034\221\274\370A\030?s\000E<\215V\346\275wN\237\276_\260\276\276\n8\241\27638\376>\341\364\335\275\206\266\343\276D\375*?\007\271I\275\322\257*\277!\334v>\237\2065>\306X\222\276X\345$?1\271+>\004W\005\277DX\333>\243$1\274\264\213\310<\347\017\225>\354U\215>w\273\366\276\353\356\026>P\2466?\267\001\021\276\321\201\n\277\273\240\307=\257\033!?\327\372w>\347h\354>Ve\302>\237\346\212\276;f!\276\025iK>\002\177c\276\226k\002?OD\240\276WN\006>\023a\006\277xt\260<i\324\277\276\346\376-\276\274\005C>BW\251\276S\031\203><I\004\276\344\021\225\276 \333\305\276\300,\274=\3479\214>\347\244\035>#\177\267>\002\321\317>E\210R\276\260#\267\276l\020\'\275G\330\337\275P\335\247\276\023\357\212>K.\026\276~\0379\276\211me>\354\016\\\276\037*\024\276&[\035?\361\277\243\276e@T\276\260\322\276=2\t\273\274\240R\245\273)\273\242>\311>\024?\207\\\352=;\021\014?n\345\300>j\206!?\244\312\366\276l#\003>\264\203T>\326\253\243>]\247J\276w\246\270\276\210\206\361>c\307Y>y\273\336\276b\023T\276\r\"\257\276\331c`>\231\353->!\347\260\275\202\203\332>-\031\371>\035\202\235\276,\326\221\275\326o\371\276\363~F?\376\256\331>\272T\307=\\\034\274>\004\030\222<\241l\306\275$\260S?L^Q>\035\001J\277\200\221\364>\204\231\223\276\032\366s>\013\375\036?\010\367<={\005\005?\327\356\n\277\362\235\201>}J\346\276Q\220\267\275:#+\275\270|\361>+\345\265\276\335\037\000\276]\337C\277\331\361\206\275*\327\256\276Y\004\207\2761\234\t\277\255^\252\276\231\022\342>E\277\261>\"\2273>\371l*\2777\334\300\276\367TH\277\235\350\277>\234\357\203\276B\272j\276w\232\032>%\331\035\277\360\374\307\275\365\243-\277\237\350\304<\236\370;\276A\273\004\277;/\240=H:f\277\321\014\302\276d\3622\2773\371x\276,\236\305>\346\343S\277\t\341\232>\331\242\214\277j\177\212>U\3527?\257\225v\275_\010\361\276+q;\277V#\302<Mf\276>.\321\345=\177\010\216\275OM\034\277 B\'>\367\272\253\2765\331\033>\021[5\276\014\263J\277\306\331\230>\340o\311\274d\327!\277\245\223\311>\334H\377>7\317@\276\270\356\246=\014cg\274\035x\232\276\221\327\261>\\/\304\275\035\335\227\276-k\214\274?BX?/ s\273\\\327\244>\037?J\276y$`\277k\200\030>b\265\361\276\307TH>DB\200>T\031\300\275\336\374\036>s\356U\276\327\231\330>C\r\212>\371Xg?\217\203\024>\277O\202>\353\032a=\032\305\250=\252C\331>(e\303\276\033=\361=o\367\233>D\021\031>qP\222\276\324\341W\277B\365\035<4\261\246=\2056\352\276L\337\014?\331N\212\275\353\211\236=\027\302.\277\006B/\276k\351\213>\365\352\361>\215\251T<\267\264&?\031\342\345=\n\246=?\\\361\332\274*#\225>\277\356\220>\223\267\034\277\346=\244\276\2756/\276\320\250\020\277)\276x>\274\204\271>n&\265>|\3234?\303f\376>\211\177\201?\2738\236>[g\264>g\013\030?\223\035~\276\253\245\014?\3403\031=OY\020?\340\306E?\024bQ\276i\000;\277<\006\237>\332\003\255\276=S/>\004\221\310\276}\2366\276\340B\032\277\3729\274=\000t\245\275\361\376\310\276\305Q\261<&p\272\274\3079\351\276\007\351r?D\302\252\276\033\036\202>K9\214\276\257\203\033?Z\215l\276\217t\234\274\205\266\273=vf\245>\216S\004<}\351\211>\263\336]>\314\254]>\217\001\350\276\303\306\026>\234}\252\275\345)\034?\343\003\260\276\312\370\264\276M%\301>Z\314c>z\260J\276YT\343=\030\313\277\275\231\371\014\277\335\324\266\274?3\362\276\013\026\260\276\200/\275\275.\307\352\276:\361\n?\023\0275\277m\205\320\273\320\010\352\275\234\310\024\277\024W\n?\002\336\243\276D\340G\277\230\276F?\350\263\211<n\317\335\276\000\0107>\206\324\006<K%j>X\233U=5\372\246>\314cU\277\253=\343\275$\027f\276\320\206\222>\032\226g\273\242q\312\275|\370.>\351]2?\256AG\276\335\330\030\276=G~>\226\0254?;\3658\277\315\035\265>(pE\276\352\366\205\276\037X\025?\361\330\'>\303\270P?\221\037+\276s_\355\276;\317\235\276Uu\027\276/\337G?|\233\210<]\227\215\275\261\372\232\277\314qF>\266]\031\277\273ID\276\363(\265>\033\024\225\275\300\233\270:ZB\213\276]\354\234\275\246Q\367>\216\3351?+/O\276\264\023\030?\203\024\211;\\\211\303\276\262Q\314>\264\226\254>\264O\355\275j,\374\276\211\265\030\276:\2237?\\\222\231\276"
      }
    }
  }
}
node {
  name: "tinyLPR/mobile_net_v3_small/bottle_neck_2/block/pw_in/batch_normalization_6/ReadVariableOp/resource"
  op: "Const"
  attr {
    key: "dtype"
    value {
      type: DT_FLOAT
    }
  }
  attr {
    key: "value"
    value {
      tensor {
        dtype: DT_FLOAT
        tensor_shape {
          dim {
            size: 88
          }
        }
        tensor_content: "\253\230\245?u\272t?\'\233_?\311;\203?<\203Z?`\353\002?\201\240\202?m\352\216?O\324c?\342hT?\232\201\230?>(]?<\257!?E\301\207?w\373\213?\334\250\035?s`1?e\273y?\367<5?c\361)?\327\272%?\315\026Y?\0328H?\270g\265?h\260g?^\312\201?\240$\347>{\275\220?\003T\203?\254\361:?\272$Y?\024\363\200?\223#\031?\023\334&?\235\005\330?\250!\323?\356\347\312?\226!\253?\221{\214?\024H:?\307u\177?\304\271\316?k\310\212?A\344Y?\340\236B?\021\262\310?=\332\222?\233\363P?^\031G?\010\235\367>4\025\250?\343+\366>\n\365\243?\333\302|?i\326\266?\373\336i?l\\d?;v\251?l\273@?\023`\213?C\246<?\217+\200?\377_\t?\370\364\230?\203Q\210?\271\024s?\t\237|?\270\227\217?\221D@?Ygw?\202\367\256?\230Q\225?F\321\273?\340H3?\313*q?\016\202c?!]\030@\331;y?\006;U?\245\341h?\261w\210?\222\311\203?fLL?X\337\200?\330&L?\206y,?\212\341\246?h\245J?"
      }
    }
  }
}
node {
  name: "tinyLPR/mobile_net_v3_small/bottle_neck_2/block/pw_in/batch_normalization_6/ReadVariableOp_1/resource"
  op: "Const"
  attr {
    key: "dtype"
    value {
      type: DT_FLOAT
    }
  }
  attr {
    key: "value"
    value {
      tensor {
        dtype: DT_FLOAT
        tensor_shape {
          dim {
            size: 88
          }
        }
