node {
  name: "input0"
  op: "Placeholder"
  attr {
    key: "dtype"
    value {
      type: DT_FLOAT
    }
  }
  attr {
    key: "shape"
    value {
      shape {
        dim {
          size: 1
        }
        dim {
          size: 64
        }
        dim {
          size: 128
        }
        dim {
          size: 1
        }
      }
    }
  }
}
node {
  name: "tinyLPR/mobile_net_v3_small/conv1/Conv2D/ReadVariableOp/resource"
  op: "Const"
  attr {
    key: "dtype"
    value {
      type: DT_FLOAT
    }
  }
  attr {
    key: "value"
    value {
      tensor {
        dtype: DT_FLOAT
        tensor_shape {
          dim {
            size: 3
          }
          dim {
            size: 3
          }
          dim {
            size: 1
          }
          dim {
            size: 16
          }
        }
        tensor_content: "\232\005\211\276\206)\322;\371\220\032>\342\223\332\275\237\023\206\276.\273\240\276\2242s=!\017\204=\301\222\377>\2306\300\276\204\253\223\275aY\233\276\303\037\211\276\006\031\263>\027B\024>\353H\236\274\232\240\005\277\022\307\201>c\211c\276\217\324G>\310\236\377\276\007cc\276\007(b\277\306T\202>W\210\211>\250\244\234\276\311`z>\000+\367=\365\217\335>\024,@\276\000n\000;\312\256\340\276\025b\360>\343N\354>\2655t\276\233D\177\276\255\010\235>5Y\255\276\374\301\005>\255C\310<\245\271\031>\273\352\273\276$\321\006\275\346x\207>\336\217\031\276\365\351\326\275\270\303\005\277\304\270\273=\334\217F\276n\364\224\276s\355\307\276\200\234\250\276rf\206\276r\255\t\275!84\276>\207y\276 \031V>>\373\363>W\227A>\017\267\303\276l5\301=#\017\262>O\321\307>\270\211\360>X\037a>\355F\361\276\216o\230\276\222c\022?\032\331<\276\205??>p\276\033\276t}\342\276\320\317\215\275m2\362>\2425\255>p&N>{=\372>e\306\r\277\240\'M>\010\216\330\276\177|\004=\336N!=\220%q>\027\341\264\275\254\n\323=r)K\276U\327G>\226\237\357\276 \362l\276|\346\253>+\216\n\277\203\325\362>1\273\322\276\241\304\001>V\343\254\276u\320`\276\000M\343=^z\230>\224\334\237\275\355\t\313\276\307\250\251>E5\250>\247\314\211\276\031\021R>7\321`\276&[\313\275-\201\024>G\365\255\276\350\277\204=\250\262i=\237\202\220>\023\261\n?+\271\210>\304U\220\276\036\234\304>n\314$>\033\363\n>\213{\376>\307\262\305>\352\014(>@\341\367\276\264\237\033\276L\027\352\276a\315[\276\362\236\265\275\373\343\261\276sc\n>\026\014\032\275\035\022\212\276v\373\200\275\332\224\317>\034\336\t\276\323\272\265>\301\215\343=\007:\024\276\330\004\335>r\275\357\275[\265)<\325\250\203\276\235\004&>\276:%\276\271\335\234>s\254\246\276,\003\242<"
      }
    }
  }
}
node {
  name: "tinyLPR/mobile_net_v3_small/bn1/ReadVariableOp/resource"
  op: "Const"
  attr {
    key: "dtype"
    value {
      type: DT_FLOAT
    }
  }
  attr {
    key: "value"
    value {
      tensor {
        dtype: DT_FLOAT
        tensor_shape {
          dim {
            size: 16
          }
        }
        tensor_content: "#8U?v\262v?\311\332a?S\221e?/+\200?\r(\215?x\316\211?\263\363\231?\270\024\200?\260\363\306?\226Ho?\240\223\226?\234\215Y?\013\252`?\321S\200?a\200\215?"
      }
    }
  }
}
node {
  name: "tinyLPR/mobile_net_v3_small/bn1/ReadVariableOp_1/resource"
  op: "Const"
  attr {
    key: "dtype"
    value {
      type: DT_FLOAT
    }
  }
  attr {
    key: "value"
    value {
      tensor {
        dtype: DT_FLOAT
        tensor_shape {
          dim {
            size: 16
          }
        }
        tensor_content: "R\375\344\276\'H\245\274\027\323p=\027Q\237\276\336v\032?\306\303\274>\230C\034\277\204\351\316\275\375fI?FzV\275<vo\276\355=\273>\357\211\001=1\335\034<\037W\357>\'\244\223="
      }
    }
  }
}
node {
  name: "tinyLPR/mobile_net_v3_small/bn1/FusedBatchNormV3/ReadVariableOp/resource"
  op: "Const"
  attr {
    key: "dtype"
    value {
      type: DT_FLOAT
    }
  }
  attr {
    key: "value"
    value {
      tensor {
        dtype: DT_FLOAT
        tensor_shape {
          dim {
            size: 16
          }
        }
        tensor_content: "\t\251P\275\\W_\274K\300\304\274\021\376\346\275\025\266v\273\276Od\273PQ\211\276\360l\370\273\351\331H<znO\273\010\362\004\276\250K\266\273\256\022\231;\353\224J\273r\351\354\273\033\314$\274"
      }
    }
  }
}
node {
  name: "tinyLPR/mobile_net_v3_small/bn1/FusedBatchNormV3/ReadVariableOp_1/resource"
  op: "Const"
  attr {
    key: "dtype"
    value {
      type: DT_FLOAT
    }
  }
  attr {
    key: "value"
    value {
      tensor {
        dtype: DT_FLOAT
        tensor_shape {
          dim {
            size: 16
          }
        }
        tensor_content: "\251\275\000<_\037\033<\332]i<\355Ku<H\211\242<\200d\304<\201\340\216=\273\231\022<\370\312\307<\374yA<K\330\351<\262\341\263<\247\224\333;\010%\303;9\003\306<\341\210j<"
      }
    }
  }
}
node {
  name: "tinyLPR/mobile_net_v3_small/bottle_neck/block/pw_in/conv2d/Conv2D/ReadVariableOp/resource"
  op: "Const"
  attr {
    key: "dtype"
    value {
      type: DT_FLOAT
    }
  }
  attr {
    key: "value"
    value {
      tensor {
        dtype: DT_FLOAT
        tensor_shape {
          dim {
            size: 1
          }
          dim {
            size: 1
          }
          dim {
            size: 16
          }
          dim {
            size: 16
          }
        }
        tensor_content: "\001\203\251\275q\306)\276\206]\226>\245\255;>\226]~?\332\277x>M\312\324=\352\262(??\334x>MB\005\276\206W\212\275nhk>\222\224#\276\243\022\224>\036\221J>\323\252\327>\014\315\n?(\301\276=\36012?\216\014\254?\350\016\"\276\225\025\010\277\032\001w=\365\372\245>)\206\224\276Oq\367\276\273\177\342\276rR\206\276\345\n\222>+\275\271\275\246\214\375>\021P\037\276\006\374\007?7f\261\276\030]\245\275\273~\246\276\362\023\000?\243\277\035?a\\\347>\275\0054\277\201\2559\276\177\266)\276@\375\246=\252ei?\302I\277\276\247\3756\276`\007!\277\022\313\014?\t\217\353<4`\201?^jH>\331{\035\277-\021\236>\313\023\034\277\221\204B=E1\267=3\205`?\377&\362\276\251}\253?}aL\277\247\320\323\276q\005\311\276\256\311\242\276\n\307\026\276r\3525>\202\225\336\276l{\005\277\326\224\017\276\025\342>>\232v~\276\305\217h>,Q\013\277\225#{\276\273d\026\277opT\277\225\342\021\277\251;\300>K\246]\277\350\014<>\3657\344>~b\006\277\301\357\233\273\234\2479\277\262\266\003?\2120\215=j\261.\277\207\2757>\311=\201\277\370\313\t?xb\234\275\036\242N>\263oD\277\377:\364\276\347\242T\276\357\273\247\276\207\363\366\275\242t\273?\323\302\221\276\201r\354<\360\303o>v7\222?n\033}>dK\230>;c\023\277\203\262\244\277\"\005a\276\355/\331\276IJ\006?\276\226\315?u\206X\276/\003\374=!\234\256=\341\246\263>4\0019>^\304\237<;\346\273=\310R4\276\366\277\220>\337\213\206?x\024\271>\002\333K>\243(\355=\336 \037>\230a\343>9\0335\276yb\203\276\265?\325\276\340q\272\276s4J\276\340\261\034\277h>\254=i\326\211\277qO\331\276\\\354\363>YG7\277\036k\226?\345\013\312\275\347r\332<(\325R\276\340\277.?\274\005\344\274\233\021\241=\222\323\030\277\221\307[\277\277E\225>\305\331\334\276\034\254e>0n\004>\301\253\204\275\035-\360\276\342\272=?\206t\034?\321-3=K\337\027\276S\211R\276a\006\366\276\033\334b\276fM\017\276\302\200\370\276\245\256\331<\324\246K\277w\373\271\276\325~\005\277\220\256\243\275{\246J\277W\267E?\2403\341=\203\350\317>\363%\004>\234%\027?AoU\277\322\362d\275\'\313\266\275r9\212>\212o\232\275H\246\002\276\363\324=>$\326Y?4D\020?\325\n\257\276`S\325>\n\205\311\2761\031\346\276NL\201>G\250\221\276\031\024\217\277\312\203\327>\223\017\007\277\244\222T>y\0242\277\355\217\002?\263\321\301>\3570W>\205\300S?/h\336\274r@2\276Z\250\240>\223\266Q>\276\317.\276\301\251.>\016\'\350>~\270\203>X\272\223>\275\373\222>\240b\333\276\262\210:?\255a\262=N\336\014?\273[\231?\rT\220\276\252N>\276\377!\307:s\366\023?\212\232\344>\231\022\335\275p\304\333\275\226\226\302\276\233z\303>\261\335\r\277\212\024d?d\210\341>\251\017\216?[\222\317>S\262\006?\256h\310<\3250\016\277\352\032*\277\007+\'?`\\\217\276=m\t\2741\\\001>\300\321\363\275\006\260\n?\177\331\213?D\311\017\277\371\021\002;\272\r\216\277[\235\321>\360R4\276(\023\262\276\322J_>v\2430\277\226^\274\276\022\222{?\205\273#\276\020\024\262\276g\035\027>\016\372\343\276\026\004\336\276\233\010\275>)\230\276\276\204X\201>O\217\263>\241\017\t?\374+\216?2}/\276"
      }
    }
  }
}
node {
  name: "tinyLPR/mobile_net_v3_small/bottle_neck/block/pw_in/batch_normalization/ReadVariableOp/resource"
  op: "Const"
  attr {
    key: "dtype"
    value {
      type: DT_FLOAT
    }
  }
  attr {
    key: "value"
    value {
      tensor {
        dtype: DT_FLOAT
        tensor_shape {
          dim {
            size: 16
          }
        }
        tensor_content: "4\315\332>9R\242?qG\262?\332\275M?\2023\201?\262\022S?\277\342\201?lS\374?B6\222>h\322\265? \266\t?\337\245V?|\0040>5sd?:\325\034?\250zb?"
      }
    }
  }
}
node {
  name: "tinyLPR/mobile_net_v3_small/bottle_neck/block/pw_in/batch_normalization/ReadVariableOp_1/resource"
  op: "Const"
  attr {
    key: "dtype"
    value {
      type: DT_FLOAT
    }
  }
  attr {
    key: "value"
    value {
      tensor {
        dtype: DT_FLOAT
        tensor_shape {
          dim {
            size: 16
          }
        }
        tensor_content: "b\223\004?\347\230N>x8\303\274\222&->X\265\n?V\032\256>\360\356\250>bX[>\326:Z?]W\235\275:\026\010?\370\352\347<\n@x?\"\215\237=\215\372\001\274\325\274_<"
      }
    }
  }
}
node {
  name: "tinyLPR/mobile_net_v3_small/bottle_neck/block/pw_in/batch_normalization/FusedBatchNormV3/ReadVariableOp/resource"
  op: "Const"
  attr {
    key: "dtype"
    value {
      type: DT_FLOAT
    }
  }
  attr {
    key: "value"
    value {
      tensor {
        dtype: DT_FLOAT
        tensor_shape {
          dim {
            size: 16
          }
        }
        tensor_content: "[\027\026?v\270t\277\235\362U\277\362\222\273\275\366\013$>\236\374\216\276P\265\002>c\2042>\330\230d<\373O\276\276\366D\212\277X\003K\276\271\024\326\276\244\250\010\277\217\365\217\2769k\240\276"
      }
    }
  }
}
node {
  name: "tinyLPR/mobile_net_v3_small/bottle_neck/block/pw_in/batch_normalization/FusedBatchNormV3/ReadVariableOp_1/resource"
  op: "Const"
  attr {
    key: "dtype"
    value {
      type: DT_FLOAT
    }
  }
  attr {
    key: "value"
    value {
      tensor {
        dtype: DT_FLOAT
        tensor_shape {
          dim {
            size: 16
          }
        }
        tensor_content: "-\205\225?\210\257\354?(O\022@,\227\025@n\250\232?\n\317\223?v\217\027@\010vs@\303\360{?A\030\200@>\221\231?\230q\367?\225\226\344?n\n=@_:S?\010\376\247?"
      }
    }
  }
}
node {
  name: "tinyLPR/mobile_net_v3_small/bottle_neck/block/dw/depthwise_conv2d/depthwise/ReadVariableOp/resource"
  op: "Const"
  attr {
    key: "dtype"
    value {
      type: DT_FLOAT
    }
  }
  attr {
    key: "value"
    value {
      tensor {
        dtype: DT_FLOAT
        tensor_shape {
          dim {
            size: 3
          }
          dim {
            size: 3
          }
          dim {
            size: 16
          }
          dim {
            size: 1
          }
        }
        tensor_content: "\225L\016>:!\213\275lt\021\276\343\t\231<`\314U\276M\213\337>\r{\037>!\022\265=B\342X>S\010\251>ga\036\276B\337\275<M\274\246\275\244^\303\275\237\250$>\224\202\'>&mw>8\216x=\t\367\301\276\264=?> P\274\276\325=\255=\002\212\266>\203\201\231>-K\232\276\371\215\001?*\257\312>\0210\272>T<\323\276\340\310\001>\207\270\367>\036)\342>\340i\320\276\363\224\365>$\337H\276%k\252>\336\233{>K\362\320\276\010\216\254=W\347r>0v\350=\341\265:=\3647t\276\0269\271>f0\r?\t\210\317>\251\365\202>N]z>\020>\315>U\202\\\276t\204\345\276\177(;>\032\253\273\276\214\344\014?\233\013\007?\237\374\227>\326\310\363>\204Q\006?\350\352\267\276\026\374S>\016\227\014\276\213K\320\275\222L\274>\251\361\276>\035\221X\276\342);\276\262\356\026\277\327\014\006?%\310\377=F\001\247\276C\314\003?\001\210\t?b\347\'\277\373\305\221>\275\271!?\215P\036?\266\005\t\277f\220\355>\004P\375>~4#?\341D\204\276\333\375R?bw+\276\2047\346>\360\233\t?\200\313\260\276\0135\261=\004\317\276>=\010\254=\306x\"\276\332\364!\276e6\202>\324\227\001?\344\345\000?\340w#>\300\333f>H\300\310>]\\\212\2753\376\231\276a\251E>d_=\276\206\017\321=N\262\312>\342\376|>\003a\255>\322*\221>?\200m\2766\021J>\324\372\003=\nC\276<];\200>\nv\221>%\362\r\277W9\\\276\327\245\205\276\275|\256>\347\364\324>t\374\234\2761\224X>\014\342\257>\2611\265\276\277A\277\275\274\212\266>\211\255\242>\221\"\202\276\300:\336>\003\271o>\332(\234>T\370\221=\"\267\244>\301\t\"<L/9>\274\021\177>\217\274/;\026p9;<\245\014>\266\030\'\274\213G\316\275\026!e\275=8,=\336\334\030>\352\372l>\\\027\025\274\246\306\\="
      }
    }
  }
}
node {
  name: "tinyLPR/mobile_net_v3_small/bottle_neck/block/dw/batch_normalization_1/ReadVariableOp/resource"
  op: "Const"
  attr {
    key: "dtype"
    value {
      type: DT_FLOAT
    }
  }
  attr {
    key: "value"
    value {
      tensor {
        dtype: DT_FLOAT
        tensor_shape {
          dim {
            size: 16
          }
        }
        tensor_content: "0y ?J\035\r?\016)\023?\0229i?<.+?\260O0?\325\327\210?\317\241\231?\247\016l?\247\370/?{@\002?LfF?\205\353_?\022\370_?\252\315\026?\347\316Q?"
      }
    }
  }
}
node {
  name: "tinyLPR/mobile_net_v3_small/bottle_neck/block/dw/batch_normalization_1/ReadVariableOp_1/resource"
  op: "Const"
  attr {
    key: "dtype"
    value {
      type: DT_FLOAT
    }
  }
  attr {
    key: "value"
    value {
      tensor {
        dtype: DT_FLOAT
        tensor_shape {
          dim {
            size: 16
          }
        }
        tensor_content: "\322\001\r=\nP\345=AO\000@\n\001u?\204UH>(Q\002=\277q|?\357}\240?\311\177t\275\301\265\234>PJ\203\274z\264u?33\227\275\266\237\r?~\242\233>$\217\010?"
      }
    }
  }
}
node {
  name: "tinyLPR/mobile_net_v3_small/bottle_neck/block/dw/batch_normalization_1/FusedBatchNormV3/ReadVariableOp/resource"
  op: "Const"
  attr {
    key: "dtype"
    value {
      type: DT_FLOAT
    }
  }
  attr {
    key: "value"
    value {
      tensor {
        dtype: DT_FLOAT
        tensor_shape {
          dim {
            size: 16
          }
        }
        tensor_content: "\335F\245\275\202j\340>\354\035^\277#\303+?\035\221~>3\263\303\275\313u}?\004\325\270?\334.\360\275m&\364>v\326\346=>\225\t?y\nH\276\034\343\366>\302k\260>\342d\037?"
      }
    }
  }
}
node {
  name: "tinyLPR/mobile_net_v3_small/bottle_neck/block/dw/batch_normalization_1/FusedBatchNormV3/ReadVariableOp_1/resource"
  op: "Const"
  attr {
    key: "dtype"
    value {
      type: DT_FLOAT
    }
  }
  attr {
    key: "value"
    value {
      tensor {
        dtype: DT_FLOAT
        tensor_shape {
          dim {
            size: 16
          }
        }
        tensor_content: "PRh>\327\216W?\253Q\262?>F\177?j_\214?T\002\252>\270\363\330?\004\010\221@_\372K>\313\255\264?\033k)>\316\366J?o\033\206=\"\014\205?\202\305\014?\r\033\232?"
      }
    }
  }
}
node {
  name: "tinyLPR/mobile_net_v3_small/bottle_neck/block/pw_out/conv2d_1/Conv2D/ReadVariableOp/resource"
  op: "Const"
  attr {
    key: "dtype"
    value {
      type: DT_FLOAT
    }
  }
  attr {
    key: "value"
    value {
      tensor {
        dtype: DT_FLOAT
        tensor_shape {
          dim {
            size: 1
          }
          dim {
            size: 1
          }
          dim {
            size: 16
          }
          dim {
            size: 16
          }
        }
        tensor_content: "\275w\364\275\206\311\345=\354\2257?3\t\244\276\344\235u\276\021D\222>\210\272\024>\030\213!>\200\201\235>M\2646\277\022\205\266=&\002N>\200\332\r?(\302\352>\231\243\336>pk\207>\0230\354\275\277\2771>g\3148>\025\264\353\276Y\324,\275_\006\020\2779\372\245\276\315\201\020=\322B\277=~\234\035\276D\362\356=\275ne>\302\235A\276gm\375;\346\352#\277[G\n\277\3250B>\225\3010?03\277?\254\332\235>\220\225%\276\342\020\r\274\262\024\302>3\206\325\275\343\3457\276\036\\w>\240\355\335>!L{\277\372\262\004\277o7\'\277\251\347\003?\310\n\016>?\366\014?\305\001\233\276}\201&?\202\234\236>\020YB>V\257\304\275\342\367\251\276\252b\236\277\275\203@>\027\267@>\027\256\003\277\235\365\236=3\321\t\277\353Y\301>Z\3522\276,\217\315=\353\266\020=\206P\321>Ya\016\277\347\272a\277^L:\276\326\361h=S\302M>%}\277\275\030\0327?\376 \321\276a\221\312>\316\315)\277\034%\226\275\233\365\226\273\346\302B\276]\267\377<\327(H\274\252\346Z\276C\330\365>\370\377\000\277\207\"\331\276\326-\306\274\317\302m\275\2126^\277\004L\237<@2d\276KY\n?\3750\305\275\352B ?\222\037\003?\250\021\001>Z\037\n\277\315\330w>t\231n\277\311\177\373\276#\233\026\277\346]\353\275\320\345\322\276\2678o?\177))>\350D\007?\303Yg?E(\033\276\332\230\370\275\305\277\017?u\210\017?3\204\025\276\251f\034?o\273\213>%[\347=5\301\302\276\310*\020\277\000S\003\277\033\027\202\277~\276\203\274\021\346\t\277\344u6\277\004\253E>\302C\013\276r,\241\276\025%D=\033\031\242>\277\342\355>=\332\200?wl\301\276\003P\372>\356J\236>f\311)\276\332#\345\276\357\033/\276\223W\243\275\270\3764>\332\\\010?@_s>\367\245\024\276\351}n>\005\262\001\277\341\233\213?7\316\'>\331\322\276\276(\203\235>\220\217!?~\206;?\010\352\"?=8\230\276\006\277\247\276\246\372\227>@\020)\276\264)\027?\277G\331>sz\231=\227\361\366>|\300\311\276\013\240\343\276Q\314/?&C\255\274\265B\251\276gE\234>\275\254?>\200\366\362\275\013=\013\277\210&{>\003a\240\276A!\376>a\341\021>JNy?\027R\224\276\022>\356>\030\320\260\274A\000\"?\250\311\205=\177\322\030=\001\233c>1\214\355>\255I\235>\215&\275\276\0222(\277\227\035M\276\232\022\315>\260\220\253=P\361\353\276rL\273>\210\355\354>q\375\340\2768\031{\275\263\016K\275uE\"?8Ks\276\023BW\277\356\305\352\276\335\315\332>\226\000\241\275\344\205\315\2761J\240\276\310|H\276dy\036\276,\331r\275\226\224T<\361\252\256<\367z)>\311\241`\277\303\370F\276\225\237\351\276\246\212{\276\263\t\231\277\021I\300;\033\"D>\233\371+>\303\306\236>\215\375o>x\327\364>\206\373\004\274t\332u>\332\324\035=<\276\315>\212\237\374>\016\022\020\277\312j%\276H\000\235=\356\324\010?\314|\251\275i\373\023=\274\235\255\275\223\275\351\276\2147=>(\\p\276+\304S\277Y\246\366>\324z\014?\357;\'?\221\275\006\276\371h\023?\220U\261\276h\235\335>\3351\035\277\345\253\254\276\262~\201\276\350\321 ?\037On=juI\276\332\217\223\277\023\316\n?\221B\372=\2271\272=GQ\330\276Mc\301>\321\275\216?\360xw\276\363,i?}t >\034\027\022\277\017\273\'="
      }
    }
  }
}
node {
  name: "tinyLPR/mobile_net_v3_small/bottle_neck/block/pw_out/batch_normalization_2/ReadVariableOp/resource"
  op: "Const"
  attr {
    key: "dtype"
    value {
      type: DT_FLOAT
    }
  }
  attr {
    key: "value"
    value {
      tensor {
        dtype: DT_FLOAT
        tensor_shape {
          dim {
            size: 16
          }
        }
        tensor_content: "\276\274\243??2\212?i\272\201?32f?|\342p?\346\002\262?\262\275\207?\256_X?!\205\204?\375c\030?1\201\211?\004\007\223?T|\214?\373\337]?\367\234O?\3575\217?"
      }
    }
  }
}
node {
  name: "tinyLPR/mobile_net_v3_small/bottle_neck/block/pw_out/batch_normalization_2/ReadVariableOp_1/resource"
  op: "Const"
  attr {
    key: "dtype"
    value {
      type: DT_FLOAT
    }
  }
  attr {
    key: "value"
    value {
      tensor {
        dtype: DT_FLOAT
        tensor_shape {
          dim {
            size: 16
          }
        }
        tensor_content: "\221J \276\227.\243>\304\312\374\275\034\341/\276^dz\275O\231\027?\356z2\276\r\336\000\276a\337S=\325\333\035\276uoE\276]f\250={R\256>\201s\'\275\206\261L<\242\362\304\276"
      }
    }
  }
}
node {
  name: "tinyLPR/mobile_net_v3_small/bottle_neck/block/pw_out/batch_normalization_2/FusedBatchNormV3/ReadVariableOp/resource"
  op: "Const"
  attr {
    key: "dtype"
    value {
      type: DT_FLOAT
    }
  }
  attr {
    key: "value"
    value {
      tensor {
        dtype: DT_FLOAT
        tensor_shape {
          dim {
            size: 16
          }
        }
        tensor_content: "\017\3733?\275\317\276?\nKa@\r%\234\277\374\313\030\300*l\353\277\020P\352?_\271\343\277\030\375\264\276\215\252\"@\362\221\300?V\346\027\300\230\031\222\277%.\244>S1\307?!]\374?"
      }
    }
  }
}
node {
  name: "tinyLPR/mobile_net_v3_small/bottle_neck/block/pw_out/batch_normalization_2/FusedBatchNormV3/ReadVariableOp_1/resource"
  op: "Const"
  attr {
    key: "dtype"
    value {
      type: DT_FLOAT
    }
  }
  attr {
    key: "value"
    value {
      tensor {
        dtype: DT_FLOAT
        tensor_shape {
          dim {
            size: 16
          }
        }
        tensor_content: "\347\232\272?;#\014@\270\361\023@\005\265!@\026\006Y@\233\212%@\240\360\215?;C\325?]\013\334?\261\2554@\364\326\310?8\253h?a\032\"@\267\252G@\266\357\215? \216\033@"
      }
    }
  }
}
node {
  name: "tinyLPR/mobile_net_v3_small/bottle_neck_1/block/pw_in/conv2d_2/Conv2D/ReadVariableOp/resource"
  op: "Const"
  attr {
    key: "dtype"
    value {
      type: DT_FLOAT
    }
  }
  attr {
    key: "value"
    value {
      tensor {
        dtype: DT_FLOAT
        tensor_shape {
          dim {
            size: 1
          }
          dim {
            size: 1
          }
          dim {
            size: 16
          }
          dim {
            size: 72
          }
        }
        tensor_content: "\305O\350=`j$\277`{\006\277\304H\230\275\216Ts>\211\257\204?\016\347D\277dK\025\276\003\365\327\276pBo\275\235\311D>\215\3413>\r\337O\277\027\\j\277\325\0219\277{pV>\372\263\341\275}\272\217>\337Pm\274\020\272\363\276\370{\333>\332Wf=\364vH=\324\322\340>\206\315\374>\005 %\277\356?B=\364\374\262>\014\255\022==\034\254\276Q\335\330\275\002>!\277c\221\r\277\020\357\030\276O\242\346\276<\215\007\277\314\335\241\275\234]\004\276\223}N\277\n\222C?\3350\241\276\320\023\021\276\001\266c\277.\t\322>e=\365\273\344N\201\275\210\336\322\276Jy\240>\023\333+?\366s\204\275Q\2170?\\\360\010\277\2739\005\277\226\301\365\275\365;C?\360\222R\277\343\"3\276w#\000?\003\352\016\277%\323\255\276\334>\205\276\203\022G\277\372\370*?\344\276\367>l\016\375\276\3532\351>\301k:?oF\353\276l\255@\276\347\351\216\277F\377\027\277\014/\013?\177\375\004>Q\272\000\277-8+\276\205\273\014>tP\214\276\334\032\010\277\352\305\206\274Du\006\276\245E\021\276\206cU\275\343Q\020\277z\3243?\247G\365=j\374\202>d\315\320>\214G\234?V\324\225>\307\362\212?$\030E>\220~\030?\240n(?!\366o>\235f\255>I\246\247\276\025\336\262\275\230>B\277*\016\250=\364\361\035\276\246\023F<,+\360\2753z\030\277\004\353\346=\354Z\351\275<\204\230>\240*\252>j\300\251>}\033\027\277e_\374>\363/\360>/Q\376\275\360S1?U\312\n?\305+$\277}5\r>\311Jt\277\314\023\002?\343\362+?\304\354\r\277\032is>\230\\)?\017:>?\237m\261>R;\026>\026\263\323\276\310k+=\254\321\376=\312\317\226>\357\305\306>.C\327=@\022??\356\234\314\273\367{z>\313\005p<\336g9>s2G?\371\371\005\276\nS7\277V\202\237\275\001m\235=C\\U\276\336\232A?^\224B?)\"&>;\276G\276\370&\r>4&\244?\215\031\330\276rq0\276\'P3>\351x\032>\027tu>\"K\207>\356eY\276[\r\222\275ws+\275\270^\316>\222\227+\2773~\306\274\336\177\330>\021\363\375>p\271\225?\250?\002?1\262\271>|\320{=\330\030<\276\246\246@>/\rA?\351\227\354\276@\243\237>A\247\203=r\304\020?\350X\221=\013\031\335\276\"0N?\262\241\013>\275\2235?47\001?\021;\322\275\326d\030\277\207rg?\261\222K?\024\262D\277\250U\341>\272\224\246>\004C\365>\035mB?\245\365=\277\343aw\276\254\366\005=\260\241\276=\262\322e>\354\037\256=\303\277\316\275\027\002\027?\266\211N\276\t\001T\277\266\236\334>ra1\275\332\370\305>\330\372q\276\265\217\024=2\347\034\277D\377[\277\341s\217=\020|\'\277\327~\271?Yso>\216\326b>\357\'\352\276k\351\353>\226*\240>\240\320\r\275\307\200\002?\373\274\365\276\313nD\277\257b\345\276P\t\241\276]\351=?\\S\307\276\331\273\245\276\240[\215>\222g7?\341\2279>O\234\370\276CR\237\276a\323\233>\300\361\">\364Hl>\2428\242\275G\016\203\276e\232d\275\351\025+>4z\356=u\r,>wb*\276\333\307v\275\020\242B\277\365=\204>C$\036?\321\356U?AR\246?\266\267&\277\246\252\263\276\027\017r\276o\331^\277\267+7\277Mh#\277\234\266Z\276\001\265#?\272\350A>|C\214>\227\273\202=\216E1\277\220]I>\312\305P>hc\345:\344\"\201>\252M\234<\006\233\310\276\354\233\205>c\314\263>\214\202\006>\361\242\033\277\005}\020\277z0\374\276\r-\335\276\220\322\245\276\r\265\265\275\016E\273>\245\201\251\276\211\310\031>\022\005\021\2775\302\334\276\333\033\250\275\024b\027\277\350E\363\276\206\375a>(\277b?\3613Y>BB\002?\232\270\221\276p\255 \276\334e\314\275\237\354\262\275\317\344%?\035Sz\2751\223\304>\204\305j? \265\205\277?\365\324>\217\237+\276\344|\205\276\300\215R>2\220\220>\251\301\006>`\252\340\276\337\026<>\020\225!\276C\372n\276\337\020\226=\220\304\316\275\226J\237>\275zO\276\251\320+\277\373\264\002\2776\344\301>\262\211Y\277\2434\320\274V\0277\277n\351Y\277|w\223>3_\341>\026\340!?\271w\016>o\211\035?\222\221;>\312\242\373\276\303\026\217\276\341\364G\277\305\314?\277\362\026\357\275\tN\024?^\374\226>\003\n\022\277\310\265\233\277\364\346\037\275\352\026\037\277\'\374*?\261\313\033>V)\306\276\333\030M\276\223KE\276\314\302\361\2755\265\333\275\302f\222\276~\311\201\276hIO\274\220sQ=\033\204};\367\223R>K\251Q>Ms\021\275K\225X\277\345\025H\277\242W\217>I[Z\277\264\213\327\276\025\267\006\277=\311\342\274\233\202\207\276I\311\315\276\377\352\317\275w\362N\276\312\237\r\2767\256\351>\322\326M>\014G\264>\374:\370\276w(K\277\014_\243>\201\366\355\276/m=\276\313\232+?\035\007j\276Q\301\373=i\223\001?\250\221\013\277\232$\245;\340\036\004\277{\0364\277\243\316\251?\347\266\204>\235\375!\277J\033\373\276E\022\025\275\310f\304>\323v\355\276y\235e\276\3261\034\2769\264l?\353\211\013?\343T\t?\377w\367>\023Y =:\225W?Le\330\276\326\337\203?\351w\022\276D\327c\277\254\312\323>\307\034\355\275\360\016\225=7q>\277\211\376m?\207\275F?\331\377\325\276\255\346\226\276\244;_\276_@R?,\243\025?Ym\252>}\371:\276\253\217U\275\334\'\030\277\305^/?\037\326\033?;\306\017>\270\3670\277 f`\276\013\257\356\274\370l\355\276\276\307\233>\0272\004?\000\271\201\275\031\266Y\277\376IK\2763\266\032\277\207\304d>\352Nu\276\225\034r\276\340i\327>\263~\251\275\301\030\037=\371\250\000\277\231=1\277\266\"4=ns}\2778\004\321\276(\356(?\213l\230>\304m\366=\245\304\307\274O\215\216>\215r\006?#\265\211\275\367d\227\274\271\373\004?\327\020?\277\"c\362\275\337\264A>\342\372\233\275\213,\332>\032m\242\276\311yY\276+\215\206\277jJ\200\276\340\340\313>&*\243\276\276_\005\277\261\267\206\2762\314B\277(\233\335\276\372\031!?w\230s<\367\364:\277\371J\267\275\346\301\031\277\347\263\257\276\351\251\247\274\263>\006>\241\027i=\207\217\266\276+\374V\274\3109\004?\310M#?e\336#\274K\027u=\027Q\213?2\323\237\275\331=\345\275\275\013U?\317\217\311\276\002\331[=\022\032\333>/\203\205?\006%\344\276\000\'\233\276K\323r\275\344\200/\277\264Y\315>\254\336\230\276\330@?\277\331j\212\277{\262\313\276i\242\220\276Dz\204\275\234\325 \274\212\204\306=W\270I\275\224\204\350>\356S\027\276\305Tz\275\006\003(?\213\245\271>ML\025\277\t\347\030\277\341\034\201>\320\007\316\276\276:^>w\325=>}\274\305\275\321=g\276H\225\215:|\255\225\276\265\2368?\244\"\333\276\304\000\227=\302\300\n\277U\2601?[\014\361>\342`<\277S\254\224\276\331\372\251\277F\217\357\276\037\241\300=Ko\303>\246(>?\300\237\234\275qM\267\276\333\r\013>?E>>\347\007\217\276\347P\022?\301W\331>\330\030\372\275H*-\277\240r\'\276\003,9>1\000\211\276\372\031\'=89\227\276U\244\321\276\204\210\332<\251\035\262>\334\325[;\036\231s>\3146\005\277\371\215\000?y\267\036>,Tb\276\246i\017>\302\304\326\2764Q\211=\332\360\374>1\243>\276d\027\032\277\266\2617?\2046\024\277\312\364\037=\224\003p=\035\235\237\276\n\3170\277QUE?\354\rH\277\315\006\341\275\265\255\317=?x\255>~B\260>5\324H>\362@\304\275\211\'\251>\014\025\362>\255u\310=Ep\367=E\325\023?\303;L\277\340\352E>U\261\021?\024\274\206\275\223\203\216=\256\324\025\277Q\314\010=\350\335\247>\'\326\324>\347\374\327>\026t\231>;\371O>\320\352\270>\361)\r?\007[\005\277\233\033\002\277qMq?#\221\\>\224\301\210>\254r\276>d\232 \276s\010\341=p\233\305\274\236m\022\277\216\322\205?\214\036\022?\025\255\371\275O\353\245\276\3661\310<\020\224\276\2769\302z=\343\367\306>\250\342$\277\364\345\272\276\315\331\333\276h.\021>\253\037\372>\\\327n\276\273\302\242\277m\312A\276\236C\233>\376\237\216>\003\3427\273\274F1?\223\266\205>\251\"\343>\353\227\232>)\"\021?at\366\276\244c\263>\367@R\276\272]3\277\272L\r\277\275\316\213?\372\263\022>\003t\237\276\327DU\277\372j\255\276qq\021\277jC\370>\350\314K>\323\215\006>\r{x\276\014q\257\276:\320L?\2577\317\276\374_\275\2758\327\221>S9\216\276)\333\203=^\317\317>Dz\363\276\243\024\247\275\343c\000\277\210\266\217>\016\327\213={\017\243?C\355d\275\007H\027\277w\371\037>\271/\264>\230N#>\220\262\313\276\'G3?\351\235\255=\266t$>\317\235\336\275\372\255\214>HL\261\276[\002H>\357 \266\275\245\223?\276\0057\300>k\010\202\277:\306\n\277\'\341P>\247\355\014?\361\".\277.\224u\276qr7?{\023>\277\314\320\222>\274\312\264>\206zJ?\257\266><\000\340\265\276\251\331n?X\200\202\275\346\200\311>\300o\270>\204\375\350\276\232\t\'?\037\242=>o \006?\367\257\256>\233\355\023>|\247<\277\320\204\242=\307#\370>\016\241\242=\365c\301\276\007[+\276\276\363\314=\333\027\200\276\324\263\224\276\267m(:\230\227$<ZUj\275%,\032\276\2326\323\276\004\356|\275\232\372\326>z\007d>O\261\233\276_\022\232>\332`E\276\014[\215\275\351\222\222?\035\365f?\345.\327\275\264\217u\276\256N\266\276\207\036\025?\2158u>]\222\353\2747\212\024\276\355\240\346>yi\313>\232\2453>\"g\315\276R\375\271=h\2769\276\215D\251=-S\221\272\262\217`\277\314\361\215>\010\371T\2762|H\276|h_\277\373O!>dEM\276\273w\315\275!]T?\242k\010\277\\\322\225>\356\211i>-\241#>\262\353\002?\2624]\276\362Su?(\271S?L\226g\276\224\231\306\276\312z\214>:\204\257\276m\031\211?\372\031h?\'\322i\276\010l\356\276\3108\343\276\246\211\211=U\301k>\226\214\222=\346\303_>3\364\034?tY\342\274\363\254W?h\307\217\276\354\363@?\314V\247>\374+\335=\24596?F\267\025\277\257\207k?\317\264\310>!\322\202;\206\222\021?\242\303:?\353\335U?{\207\260>:\027\201\276\301|\277\276\247|\023?\'\333Q>\000m:>8U,\277\276k\320\276<N\304>\202?O?\306\032\333>\366\"\336>\321\342\235>\346\317H?\332\241\330=\244q\257>U?\350>%X9\277\210/\034?&_-\277\035\352/\277CS^>73\302\275&\033n>\'0\202>\342\262\326\276-\365\324\276\262\356,?\347\244G\276;\342\357=Q\343z\276v\\\335\276T\233\263<9[\260>\252sU?\345\004\256\276@6L>\344|\'\276\3721\351\275\033\220T?\336\303\216\276\323LR>\013\260\007\277\240 n\276G!\252\276\351\337\316>\367\362\365=I\232 >\247\307\251\276Y\014\222=\260\246\221\276j\223\205>\255\207p>)\003\002?\034?\347\275}\013\t\277$e(>0rU?K1\021?b{\n>-xb?\235\t6\277\n\320\302=O\302/\276#;\017\277\320\254n\277\345\220\233\275C\031\257>ND\271\275\211\013d=\244u\347\276FK\335\276*{\032?d\327\231\277\"\342)\277(\210\013\277>\244\034?\245\216\271>\226)o?wk\023?\317\177>\2773\247%\276,9z?\332\037\022>\233W-\276\350E\272\275\334\343$\277\220\023\214?\005\005\311=\023\372\007\275\2670\244\275\311)\002?\004\\t\276\030\021N?\014p\'\277\215\212\200>4\207\313\2755\022\364\275a\016\254\277ee2>\021\212\037?\252\341\257<\363X\033?d\022\r=\367\357\217>\367\032\034\276;\230\'\277:\347\211>\005\245\232\276:\277\333\276\2661\235>\370\203\013\275lbH?\241\222\331\276\3065\026\277W\265\024\275b&\205\276\244\213\340\276\037\246\344>\r;\t?\007\024(?\252\315\224?\351kp>\221\257&\277\240:=\276\302)\320>CE\363\276\330\'0\277\022\316\306>\300\377\034\277j\030A>U\265G=\271\314\366\276\306\201.\276\007\3701?\323D\024\276\342\243@\276\324\213\374>$\237\t?\004\227\034\277\364\340\232=XW$\275\300\341\352=y\252\303\276\226*\022\277\207\207c>\304\300S=\362\314\023?L\'\207>G\214\266\276Z\304\361\276~q)?\245\307s\276\010TI\277\322\314\372\274\027\252\223\276\017\3337\274\335\221\022?\362\267\377\273Q\021\331\276\376*C?,\225\\\277n\302\254<%p\261\276\023Y\247>\356)\206\277\021.\255\276\300!\001\277$\037\251>\377\273l?\021o\275\276\204\305h>\234\277\221\274\233_\276\276\352u&\276I>T>\301\324\026\277G<\r\277\367wu\276`\325\266>\367\254\001?[\235\022\277y\013\263\276s\325\353\276\030\211`\275\371j4?n\317\022\277\025\017 \276\023\313\211>0\254\230\276\033\027%?\013;e?4\224\032>\321\324\203>\354\320\204\276\274\233\366\276\225i\301\276\237\373\366>\271fn>{\270\304\275s\347a>\373\207\271>a\214$?e\332K?\32468\274\232\2527\276\272<\007\277<>\354\276\t\333)>9\201\203\276\231P\206>s\354%\277<\263E\276J\225\365;\201\236#=3\272+\276\261m\007\276\320\256&\275^\205/\277\010\204\023\277\213\220%\276b\324\200>\367\212\245=\330K$=\364\312\221\276 \254*\276\3434\342>\346\251,?RW\365>\017V\277\275\330X\216>\267w\223>\345\351\025\276#\220\352>\272h\261\276\357\313\261\276%w \277!\207(?\237`&\276\316\212\030\277$t\030\277\210|\034?\002\177\017\276\017V\341\276\326:\263\276\331W\211>\337\025\262\277!\247G\276N\374;\276\366\325h\275c\330\r\277\033Z\235>\322%{\276\351\260K?\340t\314>\232\253\t\276\326\340\367\276\026\014\212>%;\005\277\365\311C\276\210\3178>\002qZ?S\213\030\277\277\322\005?\215\273\006\277p\226\230\275\330\231\256\276!1U=\026\313\361\276\014*\217\277\242\3000\277\004E\251>C\341\002?\223\355\000\277\271\314\376\276\006\035\224\276\222v\350>\211^s=\354\003Y\277;^g>\247x\016>?BV>\027\311@<\022C(>\263[&\276\204s\t?\300We\275\275,1\276@\246\252>\003n(?\320\221\214\275\\w#?k\330\331=X\373\277\276\364\234;?x\266\311\275^\024;?\347\352P\275\230\3644\277\323\240\031\275\223\376\210\277Q\251\035\277V@h\277?Cq\276J\301,\277\226\306\361>O\246&?\230\214\003\277\262\237\317\275\365&*\277[I\016\277\335\252\232\275\253\343\033\275\310f\254\275f\371\210\276q\243\341\276\304&\231>\342[\244\274\206\024\005\277`\245\221>+\rf?\r.d\277\335\023\"\276\242\261g?N\221r\276F\016\203\276FC\216\276\010\034\027\276\356\205\207\276_~\205\276?\354O>\235\275\357\275\026-\023>\014\222\010?\024\273\311\276\300X\342>\362\307\236>#\300\214\276dP\373\275\365\263*=\306\266\317>\336\350\372\276\223g\374\276!\317\n?u\314\033\274\334?(\277SA\024\2776\007J>dU\271=\213\213\001?|g\366\276\223\236\275>%\241\315>|D\240\276\360\260v\276\327\224\201\277\374\034\006?\311&.\277J3{\276\356\316r\277\263\377h\277\"\305+\276\251\032.\277hYd\276\027\277\240\275\003$\321\2753d\353\276\\pf?0\300@\276\246N\335\276\332\220\006\277\372f<?\0008A\277\263\325\351\2766:\036\277\236o\367=\2506\241>\354\353\003\277=$\371\276\255\343x\276\357\231$?\301c\377=\321\',\277\031\321\002?\346fY\277t\023z\276"
      }
    }
  }
}
node {
  name: "tinyLPR/mobile_net_v3_small/bottle_neck_1/block/pw_in/batch_normalization_3/ReadVariableOp/resource"
  op: "Const"
  attr {
    key: "dtype"
    value {
      type: DT_FLOAT
    }
  }
  attr {
    key: "value"
    value {
      tensor {
        dtype: DT_FLOAT
        tensor_shape {
          dim {
            size: 72
          }
        }
        tensor_content: "M5\305? \377(?8\333\010?\231\355Z?5\310&?<)\213?\025\2729?$\354\263?\035_\222?\202?B?\240\315V?:\257\037?\216\217\315>\377\027\257>{H5?M\353\234?\245\343H?4K\255>\254L\225?s\357\000@\210\277\261?u}]?\230\250f?\227\342\313?\276\274\034?I5\026?\350\353f?s\324\371>\304\362\207?\212\313\220?\343\2445?\221;1?\203\t\213?\275\340\000?\344\306S?\227\266/?\027\035\366>\361\203/?\312~@?Y:\237?\332\367??d%`?\221e\203?\304\257\201?GB9?\366u\307?\322\362z?\031\366>?\021\027\255?\234\273B?\307\245*?\010\264=?\350\034\014?\275@&?.d\256>\212\353\343>V\273\223?\325{|>\343,&?\213v\236?Z\023_?\365\340o?|\201\202?,)X?4\241\275?VA\310?F\344q?6\276H?W\243\340?Bs\342?\377\370g?A\010\205?"
      }
    }
  }
}
node {
  name: "tinyLPR/mobile_net_v3_small/bottle_neck_1/block/pw_in/batch_normalization_3/ReadVariableOp_1/resource"
  op: "Const"
  attr {
    key: "dtype"
    value {
      type: DT_FLOAT
    }
  }
  attr {
    key: "value"
    value {
      tensor {
        dtype: DT_FLOAT
        tensor_shape {
          dim {
            size: 72
          }
        }
        tensor_content: ":\375\272?\226Z\324>\332\030\336>\305\205\332>\226\341\r?\325\206\030?\324V\371>\2449\227\275N\347B?\322u\000?\347\244\013?9\311\347>(\245(?\372\301A?\320\206\001?\323\366@?1\3425=?O9?\017N!?\243\347\367>\005dI?\231\010\007?\214\0271?\017\222d?\256\276\001? \244\360>\350Z >\177M\362>R\0014>Q~u>\366\035C?\365\234\373>\201\350\215?\361a\255>Mo\271>a]\253>\364\253\357>\226P\326>\n\217\315>\023\345r\2759\262~>\252\003\257>;\004D>?~;>\307\250\022?\312\025\226>LY\\\276\222R\241>l\217\202\276\030g\225?\334\300+?\274\215\304>@|\271>\035\342\336>\263\031@?\2636\225?\241\314s?j\245}?3\337\360>\300\034v>\006\r\222>\263\027\024?\r`\206>?\224??\252\356|\276\027\206\226=N\002\361>\350\344\256>\264:n?0\265\231>\327\007\211\276\000)\241>"
      }
    }
  }
}
node {
  name: "tinyLPR/mobile_net_v3_small/bottle_neck_1/block/pw_in/batch_normalization_3/FusedBatchNormV3/ReadVariableOp/resource"
  op: "Const"
  attr {
    key: "dtype"
    value {
      type: DT_FLOAT
    }
  }
  attr {
    key: "value"
    value {
      tensor {
        dtype: DT_FLOAT
        tensor_shape {
          dim {
            size: 72
          }
        }
        tensor_content: "\177\330A\277\007\366:?IP\267\276\337\305\240\276\227KR?\010\304\223\276\205X\313\276k\234,?\032&\262\276Z\231\263\276\312\020\n\276a\304\326\276\332\266\251?\246\005\351>lJx>\303/\327=_I\244\276\243\256\320>\346N\n\277@d\'\274\260\326\237>3c&?\251\037\220>\000\354\376>Q\330\232>I\256\002\277\323Y\211>\211\004\251=\315\367\372>\230\033\002\277\306\000\371\276\302\356\313>\"K\272>\001\336\206\276\341\364\006\277\241\020\232>\013\224&?>z\025\277\317[J\276{6`>}@-?1/\032?SC\021\276\277\"\017\275\335\317\331\2765\321\201<\223\335P?pXC>\000U-?p\031\215=\276\332\032>G\336\215>$\026\326>\334\357/>\301\031\006\275\022\010M\275\263j\354\276s%\007\277\026\324\333\27309(?G\210\256>8\256\271\275HI\366:L\201\241\276S\225\362>\031\204\305\276}\3659\277\350K\207\276\344\016\302\276:\261\023\277\273Dr?\177\022a?"
      }
    }
  }
}
node {
  name: "tinyLPR/mobile_net_v3_small/bottle_neck_1/block/pw_in/batch_normalization_3/FusedBatchNormV3/ReadVariableOp_1/resource"
  op: "Const"
  attr {
    key: "dtype"
    value {
      type: DT_FLOAT
    }
  }
  attr {
    key: "value"
    value {
      tensor {
        dtype: DT_FLOAT
        tensor_shape {
          dim {
            size: 72
          }
        }
        tensor_content: "\321\212\205@\302\232w@\025\343\241@\276-\202@\245<\270@\202\322FA{\241 @\226\021pA\304\332\251@P\271\265@\364F\313@]]t@\004i5A\362\237\033A\353\217\255@\320\353\253@\2366\226@\362r\322@V/\322?\261\264\226@\351\350\262@HE\375?\017( Aw\307\227@UI\253@\035\\\245@\336\200\031A\265\265\267@\362\027\215@\300\345\251@_J\030A\034Y\201A\031\227\352@1q\001A\017\206\366@\231\001\356@\'\177\312@,{\324@\302\244@An\0178A\264\021\032A\237*mA\304\337\"@\005\220\020@@\304\223@\372\027j@8\006?A.,\374@\333;Q@\255\224\306@g\337\036@m\234\310@\013\324\306@\203J\250@\303\027\262@\025\321\377@\r\255\027A\334\000 A+\267\\@j\244\267@\226F\'@B\2726A\315\263\220@\345X\233@r4\370@\334/;@\303:TA\210?[A\0230\361?\034E\204@\"$\203A\266{\211@"
      }
    }
  }
}
node {
  name: "tinyLPR/mobile_net_v3_small/bottle_neck_1/block/dw/depthwise_conv2d_1/depthwise/ReadVariableOp/resource"
  op: "Const"
  attr {
    key: "dtype"
    value {
      type: DT_FLOAT
    }
  }
  attr {
    key: "value"
    value {
      tensor {
        dtype: DT_FLOAT
        tensor_shape {
          dim {
            size: 3
          }
          dim {
            size: 3
          }
          dim {
            size: 72
          }
          dim {
            size: 1
          }
        }
        tensor_content: "nq<<\255\337\232\275X\355)\275\020\010e>HI}\276\024\0222\276\331\362\303\275D5\247\276M?\305\276d#t\276\304\013\263>\331\275\006\276\017\353s=7\354\215\276\2144\261>\231J\017>\376p\320\276\254\341\272>\023\240L\276V@\343=}?\202\274\303_5\276[\014q=\262[\352\274\350\323\250\276\321\336\243\276,#\311<\217\325\244\275\256!\361=\367}\232\276\313\353\027=i\026\033\276\207\211\007>%\311\201=\375W\233>\322-1\277o\020\247>,\337Y>#d\203;\020b\016?^\203P\276\207\030\350>3\020X\276\264\324\361\275c\016\001\277r\000\006>\252a\376=\267\327\002\275\356@\206\276\242\305]\275\266]\312<\3148\223<\322`\317\274YN\207\276\r\362\231\276\016r-> \235\002\277B\251\370=\255O*\275\033\001\\=)\355\265=W\317\261> \302\233>%\356K=\216\330\373=\tud>\352\272\252>\3720,>\206\325f\275\023\001\326>=,x\276\377.\364<My\210=\0262\326\274\277\344\301<\353\331\'=\021\010G\276\266k\256>\211\r\300=\214b+? \273\225\276K\031\332\276\325\331\333>\370\236\226\276,\036h>i\357\277>\276\213C=)\300\351=\274M2\275\307\0142\276I\344!\277\201\2263>\370g\237\276\355w\001?\224&;\276}\366\277>&\020\355\275J4\005?\367\022d;f\307\231>\315i\006?\307j\027\276\371+\216\275\207~\014\2762W\226=\204Y\246>8\360s>\020Q\253\276\257\006\360\276\005W\257\275yGt>\340\330\302=\215\003H\277\250\213\256\276T\005\204\276`\367\267\274nK\275>\256e\207\276ae\336>V\001r\276\2132\005\276\304\261,?\345H\002\275dKa>\311:\014\275\331\022\240=E\326G\276\231\333\363\276\032\370\202\276Cm\317=\246B\316>/\304$=\316\255\212\276\224\034x\276\375\362\332>d\3664\276\004\227\275>\002Q\234\275\010\366e\276\332[\031\277y\325I>f\026b>\306$\257\275WZ\026=\220[\032\276\000\026K\276P\303\n>\354\345@\276\361\206M=V\023C=\211\243\316\274\317q\025\276\017\235\313\2744j\023=D\221\032\275\007\203\247;=\353\214\2748p\227\276>g\322\275\204\3172\276\020#\000>jG9?\3455\224\275\374\350\020\276@\'\375\274\n\325D\276-\340\030\277?g;\276h\334h=\217\0208\276\027B%\276c \364\275\313V=>p\247\225>\0367\334>\223m\363\276e \264\276\343\323#>\376\257\245\274\345\321\t=\335\376\343>\000YC\276p\223\223>p\301\230=[u4>k\360\310\276cC\222\275\345T\250\2766\233:\275\206t\261\275\254\246\200>\352\025\021>\362H\322\275\367\3748\276Z\270\200=\267\320\005>?\245)>\327-\221\275hq\013>I\"\217>\361\0248\276x\354\213\276L\215C\276\001\004\314\275~\032c\276K*\005\277\343\004\263\276\230\344P>\001z\370\275\272\314n\275d\327f\276\213s\307\276v\024\346\275{\303<\274\307\264\265>\016\013\022\275b\246<<\023\023\200\276/D\367\274\216r\246>c\025\'=S\263\006\277Z\322K?\315\302%>\235\010\367>\367;\301\276\301\323\233>6\277\257\276#>\002?\247>>>\241K\\\276\r\357A\276\357\033q\276\257\230\356=d\367\026>\353$\032?\216\273\'>en\005\276h\227\240\275\275\250V\276\301\214\371=\2319n\276\270\323\"?\236F\000\277\277\205E\276pr`\2772P\357\274h\330\220>&\344w?\224\255\266\275O\225\004\277\350\214\205\276\234&\262\275\345\243\036?\303\371\234\275C\350\270=\343\343b>\223\347\202>\331\t\222\276(\270\037\276\273\227,<3W\242?i\321\021=|\t\341>\236_\376=\233\207->\033!\337\274?=\351>:\037\030\276s\341\014\277\250\204W\275\'Xy\276\305\000\243<\212B\n?\334\203\220\276\370\312?>\351\3650? \243;\275\025j\213>W\007\220\276/D\323>\265\335c>\030\363\372>\324\t\263\275\002#\005\276\237)\014?v{\254\276\340\275\236\2767\031\024?\300s-?\r\301\210?\264.H?\376\3346?*\t ?\032\332\342\276\276\244\016?>\271\365\275\017k\273\276&m\232\276\331a\t?\034\267L\276\314\354\013?\023\010\003?`x\005?\323\'9?\257\326:\275M<\206\276A\002\246\275t\273*\277\nVA?\372\277\246\275q*\025\277o\336\005\277Bk\026?L!\276\276JF\375>:\255\272>\r\351R\275\257/\212\276\242\224\032\276\306z\342<G\030\322\276\313\2049\277\373\3136\276!\232P=\354\007\366\276\023\273K\277\246\354\357\2769M\231>\212\223\261\276\017\352H?8b\302\276\020\351\253>]S5=\000\261\030\277\377\236\322\276\362\337^\277f\251\251>k\300\003\277\300\2471\276\t\211R?\031\006\002?[\355\334=\270b\325>\202\275*>(\\O\276\235\304\377>\037\202\013\277\325\201c\276\202@\240\276F\r\245>\232\254\254\276\226\314\003?\274\302N\277f5%\276l\323\241\275\317V\300>u\000\241>,\207\223=~\2363?\207W\273\276-t\206>\317\253/\273\366\221u=W\255\235>\004\333\2268\233Z\215\276\263\\\327\274\033\271\304\275\355\356\350>\2651:\276\353Ua\276p\207\266\276\2762-\275,\2023>\372\231\376\2768\242E=\256\330\272=\224\300\344>\366\251a\276\0146\230>\274\354\277\275\346\356\226>\255L\350>\267\336\306=O\035j>8\366\221=\236\342\325=~D.\276Hd(>~\017e>\316\214)\277\t1\211\274!\ti>\375*\277\275\277\332X\274\265\000\275>\344\024\"\276\354\035\277\276h\326\225\275\327e+\2769A\374=\277\200\252:\213[\244>6`\226\276\213\257\355<\2617\232<\021\002-\276\307\361\214\276\004\245\265\276@z\303>I\220H\276\311\254\343>\013\006\274\274\236t\023?\346\001\246\275Mu\243\274s\025m\276X\353k\276\307\367Z\277!\023%=\347\273/>\353w\212\276\026<\307>\017\317)\276\263\375\211=\334\276\273\276P\346\233\275\267\251\326\276\024~p\276\376<\212>SO%\276\017\215k\274j^\273;D\377 \274\332\024\025\276\017\334k>\311\366\367\275\037\352$\276\233\251a\275.\253\236>\335=\277\276\237\003\355=\'\006\234=\003F\316>\034\355r\275I\'\270\276g\003~\276\007\tF\276\241\031\371\275\346\333_=2y,>]\022\210=(\253\024\275\374Y\340;\331\034\327\275\360K\241\276DL\033\276O\320\376>L\262q>\236\'Y\276L\261h\276\237<\236>+Z\221=\250\000\236<\215b!=\030B\223\2769\305@>\tE\323\275\320\255Y\275\364\305k>\234\303\374\275\254!P>1\010\255=\214\267e\275w$\002\276\032\002\005\276\312\260\364=\246\016\230\275\304\335\307>r\237\026\274\311\313\274\273\270\220S\274#7\360\276\001\373Z>\262 p\276\274p\305\276G\243\013>q\351\003>\215U\355>z\373z\276\211\325\005\275\371\034\207>\235v\235\275}\207\370;\220\376\206\276\312\035\212=\035\222y\276\230>y>v\363\215\275\222?N=\373\241Y;\316\362\367\276u\257}\276\3303\330>\337\336q\276\216\355C\275D\225\027>I0\205>\343-\345;\226\2012<H\244g=\232X\005\276t.@>\033\337\352\276\307\233b<0I\260\276p\247y\276Y\251\307>\317IG>C\021\271>\211z\237\276F~\262=1\342\364\276\2258\321>\320r>>$d\305>\\\234\215\275\260\014\346\276s\261\254<\227\376\233\275\317\2204\275\025\240J>&\010\020>\205\342\334\276\314\342Z\276\252\201\245\275U\265\301\276$\346P>\354S^\275\240\n4=\321\245$=\347\256\301\275\263r\247=\320\032\017>\205\361\216=\332\305s\275\014\360\375>\251\025\242\276E\000\016\275\342v\326\276|-#\276\304\005\205>\003\237\230\276\235s\013\2778\313\323\276E\267\252\275m\364\177=|\340\265=A\312\345\275\235i\350>\333\235U\276$\320\267>\307\177\002\277j\236\332\276\025S\200>\016\355\035\276\354D\253\276\200_ >\317/\377\276+hb\275\2706\263>\366/\364\276\023\377\320=\227\"\014>\352A\246>R\357g\276O\202\r\275N\271\227\276H\013\223>\014\032\373\275\367\202\016\276\331\252\236<pCQ;\265\363\201\275j\244\217=\316\247\203=\360\021G\276\232\215-\276\n&_>\220\363T>\364p\361\274\353L\262<G:`>8\271\000>I8\177=\232lY\276._k\275-\321\225>12\023;\3705\004>\352\217\023\276\213\0074\276C\031\313\274:4\225\276\340O\211\275qH,>\2446\024=\314\214\351=]\037\277>\256\2024>so\275>?q)>4\222\003\275\00204\275\266\352\243\276_\373\230=\rR\221=:\3009=\356gl=s{\334\274\337\233\342\275)\241\364\275\3749 >\366\253\365\275\276\242r\272\220\336x>\360U\201\276&\030\213\276\320Ll\274\237{]=\332\3072\275>\021\340>\326{\332\275\216\2545\275*?%>}#\250\274N\311\210>E\020\301\275\336fy>\353\207\315\276\262\203\010>\235rB\276\213\333L>\236d\177>L>\302;\266\242\267=\220:\354\275"
      }
    }
  }
}
node {
  name: "tinyLPR/mobile_net_v3_small/bottle_neck_1/block/dw/batch_normalization_4/ReadVariableOp/resource"
  op: "Const"
  attr {
    key: "dtype"
    value {
      type: DT_FLOAT
    }
  }
  attr {
    key: "value"
    value {
      tensor {
        dtype: DT_FLOAT
        tensor_shape {
          dim {
            size: 72
          }
        }
        tensor_content: "\233\263\211?\"\353\201?s\312\225?:\241\205?\234\035\215?1\230V?\213\314w?7R~?\232\010\226?\275G\236?\013\212\214?3\\\225?.\014\211?\302F\226?\316\'\200?~/\241?D\343d?\363\373\231?\"vy?\205\304\205?Vt\225?(\225\214?]~\224?\307\227i?\n\023I?1\232Q?\320\314L?`\352p?\307\016`?\363\250\201?T\332\216?\355\353\327?\356\024\224?\261(\217?T5\267?-\2472?\t\263K?m\376\236?\030d\265?h\340\222?\261dT?\203\254 ?\"\213]?\031\271\206?{\346o?+\021M?Y\340F?\025{C?\007\3072?d\232q?d\213\232?-r\256?\365\235\211?\362\000\201?2\344\177?\361{\215?\342\334\225?\304\201\273?=T\217?\002k\242?\252^\206?\n\341\276?<&;?\304\031\205?\273\367g?\323\235S?^\345\223?\224B\237?\237\200J?\t\2740?\365\2073?\177K\275?"
      }
    }
  }
}
node {
  name: "tinyLPR/mobile_net_v3_small/bottle_neck_1/block/dw/batch_normalization_4/ReadVariableOp_1/resource"
  op: "Const"
  attr {
    key: "dtype"
    value {
      type: DT_FLOAT
    }
  }
  attr {
    key: "value"
    value {
      tensor {
        dtype: DT_FLOAT
        tensor_shape {
          dim {
            size: 72
          }
        }
        tensor_content: "{\244\265=\357\350\310>Tw7?\177\306\252>\265\206\262<Q\033\314>\236\032\032<I(}=\326\246G>\232l\014?\2622\203?I\"\030\276:\rd\275\255\303\366\275\314\313\013\276\210\372\251=\2230\332=0\340\327>\026,\213\276\030(\234\275N\026\235=\014\350\242\274j\341\225=qe%>\021.%>N@\023\276\207u,\275HYE?\225r\357\275\357\247\033>\237M`?\225\350C=\345uz?q\206\034?\331\020\001\276\204\204a?{\310\226=\023\360\231>\304\243\375>9\3107?h3G?\260\341l?\302\334\r<\2520\221=p\3454>\233\225\324=\322_N?\273\375\026>x\227o?\263\3641?\225\232;\275w.\025\276}\343\244>$\004%\276\263\016\327=\212\026\341=\367\026\000?q\271(?\213\3449\274\305\3517>\214Ke>e{\255=\344jE?\216\352\341>\235\330\022?d\032=?\217\263\025\275\303V]?\223\034\333\275I\216\265>g\3619?q\345i="
      }
    }
  }
}
node {
  name: "tinyLPR/mobile_net_v3_small/bottle_neck_1/block/dw/batch_normalization_4/FusedBatchNormV3/ReadVariableOp/resource"
  op: "Const"
  attr {
    key: "dtype"
    value {
      type: DT_FLOAT
    }
  }
  attr {
    key: "value"
    value {
      tensor {
        dtype: DT_FLOAT
        tensor_shape {
          dim {
            size: 72
          }
        }
        tensor_content: "\231\340\005?\3165\264=z\351\270>\020M]??0+?\246 \205=I\n^\275\313\007\353>:\266|\276\250\021\005\277\355\006%>\313\257y\276\216*`=:\216\251>%;\030?\022\037\304\275\016b\332=\026\344\017?\031\341B\276\216|\311=\236M\205\276|\313\375>\326X%=q+\253\276\243\332C\277N^U>\r\2645>\270\3531>:u\205>s1\375\276\300\205{>\350\250?\277\207ju?\025v\303=\264\272\215\276\027\"\342\276\273\311\272>\342!\236\275\235$\205\276\277g\010\275h\213o\274@+\265\274\371%\217\274?\334\230\275{\243\245\276\013)\037?{\202\251\2757\355-=\331\243\353\276\265F\252>\306f\232\276\306\367\220\2764\265\357>U\004v\276\253\253T=\231\377E=`Bi>\010\216:>\313\204\372=\032\220A\277\263\364\235\274\313\215\314\275\236\270\177>\321\271\310\276\034\006\223>\215\222\t\277L\256\253\275\214\314r\276p\270\270\276a%H?\342\271\017\275F2\003>"
      }
    }
  }
}
node {
  name: "tinyLPR/mobile_net_v3_small/bottle_neck_1/block/dw/batch_normalization_4/FusedBatchNormV3/ReadVariableOp_1/resource"
  op: "Const"
  attr {
    key: "dtype"
    value {
      type: DT_FLOAT
    }
  }
  attr {
    key: "value"
    value {
      tensor {
        dtype: DT_FLOAT
        tensor_shape {
          dim {
            size: 72
          }
        }
        tensor_content: "P\212\351?\232p\215=]\303\216>\200M\333>\374\372c>\241sv>\330\300B>}Q9>\227,\003?#\237(?\030{\330>\341K7>\201\270\233=B}8=\363Oj>}~\213?|\221\322>\323\017\021>\3574l?\224a\232?0\356Y?:\002H?\345\226\351>\032\233??\324\205Z>\341\365\001>H\217\264=4\235\352=\250\226 >ab\036?\327\304\017>\351>\004?&\235\235?\023a\307=Eg\266>6\255G>\305\211\244=\003\272\203>\366\205\263>\001\344>>A W>\331\026\230=c)t>\344Y\300>\333\004P>(\214\027@\000w\322=\346-\004={\222\037>\260\273\343>\226\311\014?\307\271\311>\236r>>fA\005>\212Jz=\374\360\353<\245/\205?\\.\222=\210\253\307>\337\257\324?\t\360\373>\224\340\232> Gc>\323\235!?a\303\333>\021vF?\235Vx>\233U\267>\325s&?\032\314\307?p\002\262<@6\t?"
      }
    }
  }
}
node {
  name: "tinyLPR/mobile_net_v3_small/bottle_neck_1/block/pw_out/conv2d_3/Conv2D/ReadVariableOp/resource"
  op: "Const"
  attr {
    key: "dtype"
    value {
      type: DT_FLOAT
    }
  }
  attr {
    key: "value"
    value {
      tensor {
        dtype: DT_FLOAT
        tensor_shape {
          dim {
            size: 1
          }
          dim {
            size: 1
          }
          dim {
            size: 72
          }
          dim {
            size: 24
          }
        }
        tensor_content: "\317k\214>\004\236g\276\np\265\276\021\026\023\276\343\340\223\275v\022\333>G5?\277\244\260\301\276\232d\034?\201D0\276\2168\326=\347f\262>\034\210\201\275\310\243;=\241\036(?5d{>\330\344\216\276\022O#=olZ\276T\245\241\276`\030E\277i\3415=\n\231\347>\377\230\376\275\'.\t>U\237\255>\353r\365\275b\237\217=\327d\225\276\266_\251\276\274\017D>\303-\333>FV\031>\321*:?_+\343\275\344r\237>D\247\340>-\367\200\276\\\313O\276\347d\203>\233P4>\270\275\212<{\371\036>W\312#\275\227\300\033>\351\031\005\277\272\t\227>\010\201\003>\332\211\207>\026\004\377\274\216\220\226<\006\216\201>}P\213\275\002\2240\276\373R\027>\367\023b=\010\257\214=U\237-\277\315\275\216>t\245\305\2759t\004\276\326\303i?\276\234?>i\2540>H\032_\276a\3550\276\375\037\357>\021\026 =\t\035\256\276\357\347\244<\300\312\000\276\243*q>\373\323\016\276\017\340\022>k\353E>\317\364\353>,}\037\274\005\303G\276`4\271>\343\307\323\276\225\247\301\276\371;~\274o\t\217\276\001\355\034>\310R\306\275W=(\275\353\333\035?T\0268\277M\020\375=\322\023@\277\350\020\200\275\274\314\265\276\327\274\225>\253\224\264\274\265JZ\275\331CV\276\370=\305=G\361R>\302\247\020\276\265{\374=\013\231\224>A\226\375\275`\010Q?\231/2>\341e+\275\323d?\275\004\273\027\2772\302.\277qv\030\277\020\307n\276\016\031\330\276\274@\231\276\341F\372\2757\276Q\276\311!\361>\327ly>Jp\227\276e\376\221>~\327R>v\342\016\277*\367\023>\014\320\021\276tR\330\275Jw4=\326\216:?5\033\035\277\271\200\271\276\031\207\t\276\272\236\003>0Z\302>\343C\347\275:\365F\275c\272\332\275\321Yi\276>8\002\275\240D\346\275\275\353p9\272\017\346>\275\242\300>!\373\357>\027d\001\276\032t \277k\352\026\277\266\263E\276\210/\242<\272\234L>\364\226\232>\177}\225\276\024,\037\277F\255\313\276P\365\254\276\030\037\221>\3102\313\276\036\254\215=\3614\035?\362\256\250>N\252\237>\213\000\273\276\2677\303=\321\344V>\372\272\217\276_\233\255\276\335\217\265\274\361\371M\276\303\032#>\371p\361\276\301\223\202\275\220\271\247\276K\002%\276\243\214\304\276)\327\366\276i3\345\275\226!\255\276\220b\265>\224\261\017\276\231C\217=M\200(\276I[\375<\001\246\005\276E\363\354>_\357\356=0\210\223\276t\302\325\276\2774\352\274\014^\231>\034}\n\2768\'\017\277yP\261\275\236\217\325\275\360\273\230>9\313\213=D\313\276\276\270\342k\275\246\034\222\276\232$\025\276-\253\004\277\223^\032?G\020\016\276\256n\251=\237\210\026\277<\311}>\224w8\276\0368\036?\37538>\275`j\277\230\0141\276\255\201[=6\254|<\316\'\314\274\017\256\214>p\327K\276c\375\302>)\177G=s\3336>\240H8\276\030\n\306\276O\331M\276\227\274\r\277\375\022M\277\337z\214\276\313Q\\\276\200M\014?\3211b\276cUM\276\"#\273>\013\2174>\213 !\276\373\261\331>\t\253\311\275\2725\371=(\241\361\276\267X\002>\016t\017?\254\r\227\276i\323\201;\321\201\232=\0318\362=\254\216\225>\251\3435>\007+\320\273\273<a>&Dn>\225@\232\276\314\241\021\276,=\236\276\3609\013\277S! ?\302\322\024>\231:N?\'\'\360\276\353@)>\336\270d=\224\0006>\2061\020\276\005.\235\276\377P\304\275\374\305\276>\256\014\235\275\223B\250>wb4\277P\336\224\276\\\360\203=\277\254\031?\226\370~>Z\023v\276\210\357<\277\334\337#?\202\267E\277\237\035\274=\375\'\177\27552\232\276VE\034>\335\357J\276\"\355[\276V\302\272>\316\340\033\277\244Z\205>\3603\227\276\016\t\227>`\327\353\276\337\345\253\276\020%=\277\301gi\276\333\360Y;N\352\014>\216Z\211=\3630\216>\007O\\>y\336\225=Jm\351=\310}\255>\'U\014\276or\202>T\342\021\275\332m\254\276I\223V\277\tc\255\276\377q\227=\004B7\276H7]\275\3721^\276\220K\017\276\366\212\320\276iH\235\275\362\237\\\276U\360]\277\347\350j\276\373%\310>\270\366\251\276\226\354\367>.\205+<\243\307E\275\035N\t\277\020h\264\276\275|\014\276^\264\007?\220{\004\277\244+#>\202O}\2766R\310=\343x_>\277h\314\275]\313\232;\372\236N>\nJ\031\276^\235\037>\030\306\317\276s\314\205>pa\030?\rF\r\277V\002z<%\256s>\321w2>\0215#?d\0012=\001N\230\274s\376y?d\324F\273O]\363<\267\272$\275\20614\276\262\313c\2757\255>>%~\255=\2356\226\276\271m\001?\225#U\2775\226\372\275K\251\323\276m\332X\275x2z\276[\301\373=K0\250>z\270\t\276s\264\033>U\376\005\277O\344\254\276\n\301,>\\\340\021\277<\006\213==\210B\276$\237z\276\267\033e\277\270\2425\276\2607\333\275x!;:\203\251\224\276<r*\275\343fp\274MN\203\276\202W\351>pr(=\177\252\317=\277\367\217\276nU\262><\014\207\276\300\247\246\276X\255c>\033\344\315\276\364\220A\276\303c\266\275\273N\357>\2510\014?\267\305(\277\300\350\240>v\277d<?I\235\2765\263\002>p\023\210\275\316VS>\315*\262\275\307\304\240=\021\002\017>\311\346\226>f\376\234=\315\234W\276\376\302\352>\321,\272=\224\312\021\276u\362/\276j\"\206\276\3407\313\276\275\300]\277\030+\022>p\014\323>\250\310C>\242\350\356>\342\277\213=\340\364g\276\243\300\223\275\241\364\335=i\221\234\276U\302*\277|\267\274\276\373=\"\277\006\234\224>\301\225\025?\032\001\r\277\344\025\013?S\200\n>\261i\021?CxU>A}5>\267h\326\276\251\177\036\276kX\305\275e@*>Smo>Fp\000>\344b\224>\270u\273\276\317\246c=\314\003\364\276\277\256`\275y \032\276\340\260\257>\037\2545\277[_\344>j\332!\276\372\370>\276G9\356>G\"\177\276\227\t\235=_R5\2757\262\330=\204\305\235>\237\270&\277\017[\345>\036\321\026\276\361\334\222\276Sk\227>\033\316\343>S*\266\275\304\177\204>{\313\224\276\005\013\321\275\220\266\014\273\3411\372\275\201e\000>\017\001\245\276=y\223\276\350\2472\275\206\313\244\274\344\200?\275\377>\010>Z\346\002>h\357\242>470\277r\001_\276\300\254j>m\312\270>\235\235\311\275\320w\032\277\335M-\277\250\262$\276u\266\216>r\326G\276\340\213J=\337\275!\275\253\335\307>\323\207E>\211)9\276\370\220u\276)\"L>\200\350\315>\315$\322\274x2K\275\235.\267=\310\206i>Y,\363>~\360\214\276nx0>\375X\000?\254\232\333>y!#>\014}\013\275\202\275\274\276\204D\243=\005j\223\2762\016\347\276tM\340>\264\211\202=[\324\007\2774;.\275\216\277n\275\331\375|\276Q\315\361\276\246\035I=\327\340\014\275\224\375\n?\021\226\345\276\325\302,\277\211\223\274>\340\3402\276B\237\033\276h\230\364>\222\343S>\242\365\321\276\340\311\214>\275\025\247\273C{0\275\20667>8\255\304\273\027\201\255\276\010Q\037\2762\205\277>J\311_=2a\026\276MHy=\320E\260>\377\003\230\276}\206\223\276\0345\326>\214b\275\276`\315\230\276\203\252\205>\331\200!\275\"\360\242>O\215\313\276A\371\306\276\032\310\257\276\240\332_>\352\025f=\032$k>+\036.>\316\242L\277\232\246E>\257k\022\276\003\366\234\2766~T=\221\201\230\275}#\r?\211s\367>+~\372=_a\205\276\314\007\t\277\n,\317=\325\005\017\276\021\216\323\276\217\025\227>\231#?;\031\021\005\277\214\354\022?\327\356\241=\312\225\320\275\353\310\272>Q\247T>z\335\027\276I\322\n;X$\236=5\001\267\275\265\376\306\274\275\362\336>\341\\M=\355W\351\275\036\031$?\203D\317=\366\266\273\275\251\205\277=e\006b\275\241\270)\277\323\353w=\325O\002\275\220\241\271\276\010\253\357\275x\374\261><@\201>\256R\242\275B\211\202=\013:\024?\230\020+>\314\320+?\003\243\260\27646\000\274#\320h>C\312\022\276\177\264\276\276948>\0205\'=w\031`>]G=\276\314\265\331\2720\220\205\275\331y\000\276\\\247\366\276\303Wz>-\343\271\276\251m\336\276\337\373\206\275\3508\211>q,\364=\333\241\215>w\321\261=\006\250\242\276\324E\224>\243Q\234>\016\367L>7\"\033\275\0209\003>\367\265\247>,i\223\275\206P\222;\t\205\326=\rg\034\277df\374=P\024c\273\334\320L\276\332\361+>^\215\211>\353\301\232\275\360\242\001>\212\235\023\277]C\030>\251\261\333\272i\251\213\273\227\332\204=\250c\371\275\360\016|>\344j!\276\207Y\357\276\224e\377\276\355\264\031\277\353V\356\275\234\004\247<\243\2620>K\271A>\2164\304>Aj[>\270\320F\277\276\001x>.<w\276\330\372Q\276\006e\272\275\350\276\307>\001\315\277>\365\230\374\275\\\354\331\276d\233\330\276R\231@>,H\233\275\341\350\203>if\212\274\206sU\276_\321B?E\2123\275\220\251\206\275c\004\265>H@\312\276#\002\267\276\275.W\277\220\275\033?\265\314\205\274\242&\274\276\235\'j=*S\262\276H\304\272>\274\027\204=)\\O\276\3005\313\275\225\033\000\277\300\244\022\276\276\222\032\276L\342c<\352\200\347\276\327\037}>\252\376X\276\321\264I\276\272\332\252\275\253\316\036>\022d\017\277p\301\024\277\263\273\234=\305.}\276K\270\263>\304\357k\274.D\226\276\362\215\373=K\007\200\276\302\302\265\276\356\210\232>KA\017;\317\352`?\214i\350>4\257\226\275Jwf>6#8>\354\245\245\276\245\267\221=\324\3013\276\026X.>[V\234=\017\033\245\276\356%\237>\23645\276\245\237f\275\374~\360>\315\300\202>\270\230\247>\331\360\350\275\2365\007?\223\273E?\274q\n>qD\022\277`\010\030?#\333\262=\244zZ\275\036\305(>\217\342\264>\017\030\221\276U\016\245=(\017\265\276\242`A\276\305\335\337\276\220\007\342\276\263\243e\276BR\014\277S\022A\274.\t\313\276\225\3006\277u\237\001\276\346j\037\277\250\253\320\275\003\225R>\"\267\257\276\365\305\267>\232\304%\276\030\016\360\274\225i\027?2m\031?\253\306,\276\022\000u\276(\341g\276~\220\037\277\201\r{\276\014\207\323\276\226!\307\276\235\t\024\277\3474\330\276\272w\267\276prK\277T\237\024\277\204+\304>\004D\352\275W3\013\277\265\016\253>\001xq\275w\r\211\276\036;\371<\324\256e\276\350\243\177>\016\033-\277\332\217\202\276x\2661\276\266\241;>\014\334\277=!\343\213\277X\301I=\232\341\007>\324N\005?\222\010K?\007d\n=\3631\251\276V\244L>\000=\'=\337}\010\277D\246\324>g\376\026?\310h\002\277\253\024\337\275\221\366\365>\323{\007\277Z*\274>\022\312\347>\323\246\231>\010\231g\276d1h?\336\367\373\274\032\303\356\275M\310\325\275\022C\322\276\\9C\276\t\337\361\276R\240G\276\243\327.=J\255=<\\\361\024?\203\267\270\275?s\272=\317\274\250=\375V\016\276\367\316\005\277\370tB?\344\205\'\276\332+\257>j\360\336\276\230$5>\323\000u>\337\035\256>\341\360H?\301*o>\256Fp>Yt\200>\330\206\270>\357w\n?\337\244\352<M\006\266\275\364\241\264\2767D\353\276>\312\303>\003\024\256>\217\334\263\276\014F\363\276\243\222\000?\324\262\316\275\"\3508?X^\372<\304\004\347>,\027p>u\250\254\273\177\325\220\276\307\371\275<\024u\365>\306\005\300\274t\321O>\210R)>\200\361\363;\330\032\255=L\003\223\276\200%\006?\235\236<\276I\r\333>\210\225h=\336\225\351\276z\027\261=O\215\033>\242\376m\275\336\336\035?\235\272O\275\221\335l>9\317\006\277\027\352\013\277\323%\206>\314\027\320>\302\326\315>\343\271\275\276\273\020\261\276\332\302\233>\307\006\037\272K\'*\277\0253\020\276\247E\000?Q\202t\275\321\236\315>\310p/=\374\374\243\276\230\242m\276\301\237\236>\002n\221\276F\ti>ql\'\275\215ia\275\204+\'=JE\304=\325\027\007\276\3311P>\n\236u<JP\310=>r\353\276\327{\"\277\001\262G<\220\377\206\276@\276\014>t\324H\277\310\2322\276\364\373C>Nu\300=\002\204O=\242\254\353>&\352\375>\321\274\353>\241G\022\277=\211\311\276\211\325p\276\r\333\231\275\350\255u>\'\021\205>.e\034>6\233T=\264v\005\277|\321b\277\034\354\235>\006\344\004\277@E\237;\213\310\210>\374\332\202=HJ\005?\2152\243>\242\352\005\2776\221\024?\251\2609>\244\027v\276\310@\032\277\327\372\035\277\361a\005>\307\226\370=\033\211\010\277\216\336\002\277\246D\013\277\233m\377>\003?^>\250\264\366<\323\r\252>\371\351\026>\324\016\235\276\245p\322\276;E\256\276]:\307\276I \345\276\345r\007?\2518\000??\360\"\276\200e,?L\035\007\277;L7<_Z\314\276\236\302Q\276\301\250U=3L\004?=\210\223\276\357\220\315\275g\275\001\276Ee\034?\250\215\362\273\372\346J\277\376%\006>\261B\357\276\262\261\001>\211\345\347=\231\006~\276f\225\327\275\2647\346>\267y\014\276\254\225\200>\\\373\331\276.\305\216\276\\:\036\277*\213H>\224S\254>\024G,=\303\325\226=<o\324>\250\250m>\357\254\253=\247\010\362<\010\213\223=\371\330R>Z\232\343\276\207\"\244\276\212\317\347\276\341q\267\276\217q\360\276\024\327\352\276\322\310\334>\037\307\031\276G\017\307>$\253\321\275\031\t\003\276X(\265>\370\233\346>;\035c\276\262\371\217\276\263i\274>ZQ\262\276\000f<\276\267\246\377\275\032\316h\276\032\2518>/\275\361=\333\002\244:\325)\305>\301-\356\276\022\366\n\275\030@\005>G\325\264>\362W\211>\333\030\265\276\330\013\261\276)\261o\276\002Y\267>v\033\202\276\213\032\225=\2458g\275\3458K\275e-\256>eZZ\276\251P\021\276\232\260J>\255\326\253=\377J\226> \212)\276+\211\227>Q\206\216\275\216\003\336\275@\3541\275\227\037\306\276\372\224\017\277U\013\002\276\003\377\201\276\000\360\n?\303\215\013>CI\265>\034\343\316>\313\321\t?\007X\311\276\245Gk=\366k2\277\202|\037=\177S\262\275Uo\361\274\334\023\200>M\232z>\352\352\365=\026\216\020?\336\\\363<12=<\351\360\217\276\365\300y>\301\244\216\276\375\364\232\275d\355\262\276\002\264\243>\3322\037\277a\002\232\276\237\3576>o5\277>\262\3513?\001V\000=\373\025y\275\236[\345=\023\016\243\274\256\361\355>N\022A\277\326\n\004?c\313\002\276\220\351B>\026jo\276\\\370\r\276\371\325\331\276\353\217\361>\376\306S>I\335\212>\221\267\261\275\300]\240\276\203_d>\320\320\025\276\376\230\254<\n\337\222=\352\341\000=\325\346\006?\306*\207>\240Z\315=\327\326\310\275\334\262\335\275\271\360\270\276\002rB\276\311 z>H\342x\276\243\254\226\276\2146i\276\301\257\356\275@\332\n?\272k_>\220\233\370\275\357\220\317\276\353\312\024?\256\010\256>c\261\n\277\221O\210\275\030\223r>\337\373\276>\235\302\025>q9\r>\233\237\216\276X\212\242\276\277\231\025\277\326g\";i\363->\274R\300\276\346\\\025\277op_\277\2241\220\276`\235\253\276\031\336\313\276\336%D\276n)2\277\356\352N\276!F\331=\033\'\342>QM\014>h\217)>\345\242:>\033\232\365\275K\340\370>\243\254\326>\002\321\221\276\240\237\363=$\372\270\276\303\005\305>C\320\250=\340\021\336\275Z\225\223\276\372$\234>\200\377Q\276\216\'\372\275<\203\007\276\200\371t\276T[T\277\214\307W>\234\323\352\276\314\242\013>tw\n?v2\023=\205\247V\276\271\234q\275\376&\215>hk\272=.{~=\342O&\276\303|\312\276\240\357W=l\277\376>4\262\377\276\270&\361:\305\327\002?6\305i\276S\350\211=f\317\201\2743~\275\274\232\260}\274k\016\035\275\365\312\374\275\333\237\277<\002\007\267=\367\321\234>\020M\362>\332\302\"\276\216\221\207\275^C\005?\240\333H\277_\274\177\274 R\223\275\242\275L\275\013\341\336\276\362\017 ?\014\274\330>\014a\312>\373\262\347=\0267}>B0\262=\346\235\224\275\317\244+\275\313\241\207\275H\207\004?\374U6>\337\242\266\276\001\013\261=\301;\314>\271\271\030\277\227r\004\276)\375C\2769\234\326>-\361\027\276\006\304\346\276\356\031k\272\370\256\303<\250\213A>e\360\261\276\374\327\273\276\244[\316>q%\t\277\331E\270>\367\226\326\275\363`E\276\236[\220=\nG\325=\206,\245>\202J\014\277\3139<\276p\036&?16j>\311V\224\276\201\346\335>R\342K?N\267\'>\t\316\200?\000\265z>\237\235\256>\007\340\222\276\220\306\031\276x\016+=#)\005\277\014\262%\2766\002\327>\316\352\315\276\304\262\315\276|^\307>\205\252\341\276U>/\277\305x\251=\233\347p>\351g\214>\245k\025?EW\244\275\241\227?\277HlR=]s\023\276mZ\001\277\354d\341\276\326UQ\277\362Vy>`\207|> Qa=\237\226~\276\265ZS\276\216=0?\255\013\342>\364H\033\276i\247\205=\272H\003?\372\311\021?\314\351`\276!\327\250\276X\376p>1\304\256>\301g\260\275\326x\265=\222\231\336\276\377\316\212>\372O<>e\234;>\2107\277\276\352/\247\276\266\256!>\225\223\033?\010o\365=R\232\342\276\177b>\276|3\261=\234\223\022>;\321\027?\326\326z\276\223\366\013>\035~\367=\224I\325\276\016\247\260\276X\255p<\344\355X=k\n<\276\nS\330\276\27072\277\366\203\036\277\3154\203\276\267\244\255>\203&\252<\032T]>\033q\211\276\343\022\006\276\243\333\212>\007n\234\275\240d\317\276P\351\303>\365\\\026?\345\260\'>\251y\257\276\347\334\266\276\3551:\275\361W\021\277\211\026\256>\007`R>\010\033\310>/9\365\276\0131Y>U\200\231>\314\037&?\364\350\242\276SM\017\275\307\277k=\022\217H\276\036u\302<,#\330=\3241\004\276@\206\014\277V\333\341=!\260H\276\274\251\237\276r\004\321\276\366\324\207;\260\243\366>\010\330\027\277`\005=\276\246\257\337>\226nm>.\270\207\276\261Y\353\276\2436\374\275J\374\373=\344\355\226\276\267\027c\275p\031\244\276\360\t\001>/\322\022\276\272\035(?\372\3715?!\335S>\357\326\326\274\353?\003\276\377\320\214<x\374\210\275\022\373\207\276t\014/\277m\225\235\2766\222\007\276\244j.\276\314\275-?\347\002`>\331\255??\202t|>\366\341\006\277E3\263=\230Z\037?*\"\253\275\351\r\357\275\206\275\257=\361\370\266>\201o2>\330\344\253\276\230%v=\203\340\027\277\277\3554?\221\214\006?\215[\267\276\304\025\014\277/\360\250;C\345\177>\263\216\024\277x\241_\276\322A\273=v_\017=\246(\225>\350\323\n?,\"\363>.\252;=DV\373\2756\277\263\276\307R\332>\231\264\207\276\260\257\273>\263\013\214\275\211d\207>\374\231)\2769\210\243=P0\n\276\361\345\216\275\210\376A\276\2468\311>\023)\311>\274?/?~\341>\276\257\3457<-\020)=\017\n\004\277\201\213\001\277+}\317>&u]\276\322t\n\275ag\225>\303\273^\275\270`\001?quY\277\357\272\271\275\345\366\002?<\337\234\276\016\314\207\2765\341p?\330\271\220>\317b\306\275\255\022\007?\322\305\215=E\316H>\3536\222<x1;\275\327\215Q<1\323)\276S<\246>\234^\252\275f\006\244\275Y\2367\276VF)=\226r\346>>:\001?\rg\276\276\271\032\204>\317\350D\276\304\023\035\277r\274\306\275Q\302[?\'tK>\336*\001\276\207\257\007\276\347\334\352\276\375\200\006\277\0038>\275#\302O=\0146!\277\302<,\276K\005\251=\220^-<\304\253f>\346\323F>H\265\252=\2755\241\276?\377\007\277\3715A\276\263\024\'?\\9X;\351S\372>\007\351x\276:\347)\277\347\260#>\017\366\244>\276uh\275Y\307\321\276\230p*\275t\344\270\276\333I\003\277\252J\000\276e\376$\275I\310\322\275\320s\221\276\007\336$\277:\300E\276xfc=\223\203%=}f\312>S\027\222\276\3779\311>\343T\305\276\262\027_>\344\256\370\275(t\243=\271\031)\277\026P\035<\220\177\251\276w?d?K;\275\276FF\225\276\005\271[>\214\0331<-\350\007\277\305Vf\276\225\260s>\206O\002\277i\243,>\215\222p\276\260\356y=\312zy\276K\224\201\275\261&\224>[*\222\276\254\256\300\275ow\n?\034c\211>\213\320\230>;\367\205\276\216%\267>\212Q\305>\305\204Q\275\213EG?\002\366\217:Fe\361\275\316\354\216>\255\250\344\276\346b1<\307\310\n\274@\311\217\276p\004\315\275\271\372k>\235\230Q>j\373\036?\305\215\021>!%\244\275\366O\371>\266J\352>\351\001\273\276j\336]=\364\267\037?\305\267\026\277\331\341\201>\240\360\032<o\350\233\276\327$\027>\226\274\033=\240\277\227=\305\356\242\276\251\220->\216\003\220\276\317\255a\276\263\206g\276\300f\242>\0338\263\276\300v{\276\203h2\2776\335{\276\360\306e\276\212\226\033>\t\"\211>\360\213\265\274\020\317\013\276\262\301F\275\3413\177\275X\005\237\275\017\351|>\271\352e>U\n\024?[\363\260=\3504\361\274ZP\214>\327@9>i\302\214>7\370P\277\250\364\227\276\030\n\222\276\362+\303\275V\377\355\275\005\254\341\275\027\334\215>X\212\247\276\213\347\'>\303;2\277\303L\376=\304\002]>\207\345\007\277l\224\301>\344\031\331\275\t\n\006\2773\036\">\002<\351>\262\031E>\360&\177=KK\024?>\003\342\275j\233\034\276r\366\211\276(\317\360>\023\374\237\274\341`\373\275\254uj\276\200\345\033\276\330xI>\362\316\004\277\222 \233\276\003\220d>\005\016\226=\037\225\001\276c\357q\276!\023\311=\254D\216\275\031\217\261>4z~\276\371\026\n\276\001\363\226\276\277}\224>\245(\n?\014\211H>#\021\211<?\036\314\275\371\334\257\275k\202i\275C\276\263>/\243\227\276\212\233\003?}\321T\275Xl-?Z3\035>\003Y\\\277\376\265\023?\0076\251>\3200\004>\024tM>C\212R?5\364}\276\026\226\001\275pV\304>\331\246\312>\010\335/>\177/\234<h\353\355>^\244\234=\026{\365\276\"7\305\276KT#\275\355\232\373\273^\003\212>\246\235\034\277\024\024\305\276!\210\344>\253\354J>\342\037y\276\027p\203>\201\335\014\277\263\355\010\276\262\362\344\276,G\203\276\276\013\026\276\264+U>\206@\230\276\352\262=>\227\256><\t\\\220>\256\231\261\275y\t\n\2774K\205>\250c\207>\031P4\276UR!?G&,?Z\235U\276\261\2677>\020\371\365\275\217\357\014\276\332\005\371\276\315)\245<\007\022%>N\351`\276\305\234<=\222GU>\247\2607>B\241\000?C\374\220\276[\013]\276\304*\302\276\367\366C\276\031yX<\242s\334\2742\250\226>\362\207\254\276\242\325c>\234\207\220>\254b\311\275x\002\312\275@\266\370=\225\010\214\27474\367\276\301B7\276W\311\247>3\251\005>\036\273\036\276\016\254\307>\241\240B\276\261Z\236\276\362\217\n>\244\375\013\275J\242\006\276\262^\200\276H;\013\277Q2\">I\233\226\275\'\304\305\274\303q\237=\246\266\010\277?2\333\274j\320>\276\342\212\255>\010\312\345=k\377\033?8m\'\277~\331\262>\3212\340\274\'\232\305>\323}P<I\204\266\276\340^\270:\215\241\264=yW>?\224\344\340=\247\360\024\277]\310\004\277\350-8\276d\304 \276\323\271q>\211\341\334\276\024g\276\276Co\262>\3217\356\275\201\376\360>\227\3216\276\214(\003?\t\300\225\276\222>%<\242K+=\372\027\306\276\215\235\251=\252\331\263\275\322;M\276\016\231\230\2755\354\245>{g\260>\210\334Q\276"
      }
    }
  }
}
node {
  name: "tinyLPR/mobile_net_v3_small/bottle_neck_1/block/pw_out/batch_normalization_5/ReadVariableOp/resource"
  op: "Const"
  attr {
    key: "dtype"
    value {
      type: DT_FLOAT
    }
  }
  attr {
    key: "value"
    value {
      tensor {
        dtype: DT_FLOAT
        tensor_shape {
          dim {
            size: 24
          }
        }
        tensor_content: "n\324\321>-Z\314>\006\300\017?\007\345\321>\375\334\306>D\323\261>\253R\307>\317\302\310>-\254\222>\022\262\255>\244\360\277>\377\215\256>\302\037\264>\347b\361>Y\320\346>!\256\324>e\265\025?\337\027\342>=\315\314>\264\247\262>\215\016\332>k\344\362>\2402\227>w\231\225>"
      }
    }
  }
}
node {
  name: "tinyLPR/mobile_net_v3_small/bottle_neck_1/block/pw_out/batch_normalization_5/ReadVariableOp_1/resource"
  op: "Const"
  attr {
    key: "dtype"
    value {
      type: DT_FLOAT
    }
  }
  attr {
    key: "value"
    value {
      tensor {
        dtype: DT_FLOAT
        tensor_shape {
          dim {
            size: 24
          }
        }
        tensor_content: "\350\013\017\277\031\037\351\276\207\336T\277\013\356i\276\250\000\272\274\214[\257\276\233,\255\276\361\021\236\276\266\0374\277\026\030\307\276\303\037\324\276\223\356\t\2771\354\200\276\031\230\004\277\t\222%\276\233C \275b\263F>\303H\224\276\300\220\277\276\311\244\n\277\251\002\300\275`\210\352\2768\224\226\276\001\3076>"
      }
    }
  }
}
node {
  name: "tinyLPR/mobile_net_v3_small/bottle_neck_1/block/pw_out/batch_normalization_5/FusedBatchNormV3/ReadVariableOp/resource"
  op: "Const"
  attr {
    key: "dtype"
    value {
      type: DT_FLOAT
    }
  }
  attr {
    key: "value"
    value {
      tensor {
        dtype: DT_FLOAT
        tensor_shape {
          dim {
            size: 24
          }
        }
        tensor_content: "\316\004\337?\030\250\334?\336\2432\300\320W\260?\005_1\300\254\2316\276\002\316\030?\301\331\341\277\234\341??\334\335\305\275T\346M?\262#\014\275\302\240\224?*\271\025\300\030\377\203\276\311\337\263\277|\\\263\277\253\261\221\300\353>\372?\354c2\300\221\002p\300\034\314\262?0P0>\242.\314>"
      }
    }
  }
}
node {
  name: "tinyLPR/mobile_net_v3_small/bottle_neck_1/block/pw_out/batch_normalization_5/FusedBatchNormV3/ReadVariableOp_1/resource"
  op: "Const"
  attr {
    key: "dtype"
    value {
      type: DT_FLOAT
    }
  }
  attr {
    key: "value"
    value {
      tensor {
        dtype: DT_FLOAT
        tensor_shape {
          dim {
            size: 24
          }
        }
        tensor_content: "X\330\274@\272\267\230@9\305\003A?\306\363@lR\017A\212<\272@\324\261\345@\010\221\354@ii\215@\260(\303@7,\030A\217\360\273@b\344\315@]N\317@O\026\003A\036\021\235@\262\307\033ARd6A.\250\336@\340\212\356@nY*A\213e AA!\262@d\335\306@"
      }
    }
  }
}
node {
  name: "tinyLPR/mobile_net_v3_small/bottle_neck_2/block/pw_in/conv2d_4/Conv2D/ReadVariableOp/resource"
  op: "Const"
  attr {
    key: "dtype"
    value {
      type: DT_FLOAT
    }
  }
  attr {
    key: "value"
    value {
      tensor {
        dtype: DT_FLOAT
        tensor_shape {
          dim {
            size: 1
          }
          dim {
            size: 1
          }
          dim {
            size: 24
          }
          dim {
            size: 88
          }
        }
        tensor_content: "\352\251)\277\2030\266\276\224<%\277a\257\333>\207_x=\203\376\267>\313k1\277\"\257\024\274\317\316\030=\010\'\r\277\2742s\276\302,\233?\276\270\346\274\330h\205>\237\031\307\276\013z\211?X\014\376\275d\353\303>vE\371>\010\3322?\247U8\275x\266\016\277\177\225N?M\346^>\222\341Q\277\351\030\341=\211rm>\261\014\030\277\274\006#>\320VX\2765>\271=\2571{>-\337\242>\000\226b\277\263\225,>>\005\016\277\221\302\275\275=\277\037\276\005o\271\276\275r(>\223\337J\277\242\361\246>\321s\206\275\004\213\r\277\352dj\275\227\364\201\274!1\231>6\362\234>\362K\253>\364\272\004\276\022!:>>\324\242>D\023}>\"V\212>\204\207\005\277\332s\256=\367\353\337\274\025-\257\276\354\312\003\275W\366\356\276y;h>\356\326\007>X\201\372;\346q`>\342\2666\276\375A\210\276f\267w\275\326\213\031\275\n\020\203\276#5\232\276\232L\206\276\374u\301>\352E\245>\225\0162?J\200\310>\"\\\273\275W\210\r>;\276\341\275\376y\225\275\270\031\353>\000\005\357=!\306\203<V\270*?G5\303:z\022-\277y\240\311\275\312\367\325\275\340q\211\2766\261\366>J\304\320\276w\260\241\276@u\227>\357/\242\276\337,g=\370K\320\272\034\347\263\276mZ=\277\225t$\276\362\237D>\nT\241>w\363&\2772\006\037?LEQ=\371\211\325\276X5N\277\206\305\245\276\020\311\033?\347Co\275Hy\r=%%3>#\365\243\276\340B\001=\007^.?t\2777\277\372\325\255;\212\035\317\276{\246\267=-Z(?\263\202\200?\224\214W=(\210\364=\221\t\036\276\317\216\032?\025\336L\276\321k\025=\376\203\021>\344\244F\276o\027\n\274,\035\266>OJ\017?\254~\r\277\274\005x\277\351s\225\276)M\263=2|X>\351\350\344\275\"\325\251=]\317Y\277\2717]\277\363C\021\277Z\213\233\276L\006\267<\274\237w=\\\330\241\276\337Q\027=u?\202\276e\305\226\276\333\246\317\276I\311\267>\310\0218?\350\217\312\276R\265\027\277\022%\341>2+\326>o\030\306=Aq\236\276\2269\023=\220&\242\276@8\030\277\240l\374>\2775m\277\305{\004\277\360\037&>\214L\324\274fg^\277\243aQ\277\027\350#\276V\035P\276\231\006\277>\305\240\n\272[\231\357\276f\373\322\276e\357\312=\251\027\255=\256s\366\276z\202v\276?\'\021?q\331<>9\'\321\276Le\202\276\274\326\226=\023#\222>g\261z>7\245\217>\304]\275>\366\017U>~\026[>\240\0168\276t\003\265\276\364$\264=L\314\233>\2626\211\276\3511t=\0322\271\276\325\341\007?\335F\026\277\016\375\261\276\003\367J\276\212BW>\253\2761?d\376@>B(\370=\347\326\264\27630\362\2756\024\034?aU3\2767\"_>\311\024\353\272\322\310Y?\347\307\007\276\342\017*\276\357\325!>`\\\275\276O\251\252\275F\233O\277\255C\270>\361N\315\276\0135S\276<Z\233\274\244\312,>\271\262\n\276\244\317\233>Y\275\350>\376\357\375>\004\366\237?^;\014\277\212\237\335\276\021\250\220\276\200\'\346>\345T\032?\2734\360>,\361V>\347V\r?A\"\233\274K\"\262\276\250{\032>\341\303\335>\rGH?~\0205?4o\345>\246\307\017\277Z\350\346>;\264\365=\027\355\346>!\007u\277\366\374\323\276\367s\000?t\320\274>\250p\307\275\210\317@>\023\237\212?b\266\272\276\037\373\213\275)\322\027?\354\'\347>\330\0048\277k\336E>\036\177\370>\237k7\276\276\026\002\276\317\312\302<\263\023\233\276?\351\343=\017\276\300>\tq\030<\016\333\334\276r\036\263>\336\364/\275\2025\357\275\252\203\347\274\346\343\\\277M\237\030>\270\364\261\276\316\023\207>\025\340@\277\351gG\276\336\313+\276CO\230>\351\024\300>\3667->\005Z\264\276K\204L>\302m2\276\"4\021\277\333\317\216?\321\3112\276<\231Y>\304\321\361\276\224\005#>\373\tF\276\241\304\202=\252F-\276\277N\300>\t\t\270\276e\356\033\277\036\255\264\276v\215\r?&mI\277\036W\033?\337(\317\276N\004\021\277\223\331O\277\031\340U\277\277\252\200\276\305\232\306\275\254\\\254\275|;\347\276\207\251\211\276\260E\340>x\257\\<\000a(\277c\233\236\276\200 t>\204\3551>\241)\020\275\346\213\223\276\362^D\275\265bz>\"-\202\277ay\217\276RA\020\277\340[*?\342D\016>\202\221\020\277d\2431\276o\320\032\276\000\215\375>\035\225\336\276D\224=\276\364w\t\277\034\200-\277\363[\303\276CZ\320\275\022N.\276\234\331\030>\201\021\t>/%\036?\224Z\211>\0022m\276n\242\303\277<\264\017<i\000==\374\332\207=z\007\201\276\326\t\235\277\300\035\345\276L\353\031\277p\276\330\2764\204s\276U\021\236=\024\277n\274`\265\223>\tV\250\276\001+\234\276\267\217\326\275B\005~\273\001\310\204?\"\017\007;!d\023>\033\261\234>\277\2706\276\346\232\\\276\374\204\260\276\311p\270>\327\306\301\275\231@\006?\247!\330<\273\004\231><\371\246<:\355E>\203j\007?\317\300\203\275\250\275o\276\310\205\237=\'\367\000?\020o\327=\002\370I\276@\021\373\275\016\0333\277\310.\016\277\263o\t>\000O2=E\346\310>EU+\277W\220<\276X\r\t>]X\220\276\023\276\311\276\317\210\302\276 \204\351>\247$x>\351?\032\276k\035\274\276\343>\210?eX\324<\004\314\221\276^\264\341\276t\000A\276sk\t\276X\335[?\034\030\024>\201t\022?)\367C\275\263\256\214>FQ\375\276\300J\220=\212q7=\274G\335>\264W\032?\305\264\006>&\330\014\276\021\377R\276K\021\014>\225$\226>\363\372?\277\340z\002\277\332b\233<y\350+\277t\214\032?\340\275\207\276Bj\240\276?\201\234\277\234G\367>\235\"\240\276\277\270\377\276\1778\310>}K!\276\021\366\312>\254\031.=`~\200\276=\003\260\276\225\265\376\275\221\232\037=\"\331\035?XR+=\306U\227\276\013\367\310>{\n\270\276\213\237@\276\262\216$\277\307\202?\277\010\357\225?\003\202H>\210\325,\276h\306\362\275P\345\036\276\346n\375>\357\203\002:{\3756\276\330\033\'?w\010\230\277(\243k>\267\204>?<\261\305\275\302\214M\276\031\213\270\275b\264\346=\374\035L?_F\017\277P\313f>\302\366\217<z\247\377\275\217\263\n\277\334\312\224\276\223\334k\277\271\205l>F\207\325=\250\nb>\341\356&\275A\304\334>\010\205\254\276\"\337\023\275l\252\314\275%\357\336<\031v\233>\275T\240>\332\221\364>\323\"\210?\200;\240\275\003\334\200\276.\250C\276\267\304t\275\240~\357>.tf\277\361p\245\276\007&\007\275a,E\277\225\333%\275\326\264/\276H\\\370\276\017I\371\276\t\013K\275\367\355\324\276\365\314\245\276\211\311\375\276\351\377\343=_\006\226\275\316\344\213\276\366V2?^\"\003>H,6\277\003\r\025?\0343\356>\032\215U?\023K\254\273F\201\037\277\233\007\271\276=\363@<z)\311>\256\352\214\275\t\362 ?\377\027\n\276\242\225-?Q\373\312\276\032\002\271\275!7\321>\267w\207\276\322\"\364\271\336\343y?\222q\200\276\3206\376\275\023Ve\277\361\';>\253\344\001=\027~\223\276|\332\021?\337\177T\274\352k!\277\261\264\236\276o.\211=T\216\233>x\220\276=\177e5\277iu\356\276\264\222\251\276\366\266\016\277\346\271\240\276\203\305\003\277\334\006\021=\203\3139\277\254qd>\355\227\211?\301EN?\2759\265\276-\220)\276\303S\364\276\031r\364\276\004\232\240\276\224\007\234>\201\004\276\276\"\314\210>b\034\222>\342J\226>\331*\035\277\342 \363\274\263D\272=\227\357\250>\003t\200\276K\231V\276Z`\216\275\264\031\016>\367\363,\277\035\310R\274jd\345=\206\237\016\277\331\035\267\275j\203\373=wg\005?\240\311y>\005\260\002>\214\265\215\277RAZ>K|\003\277\336c\300\276\312\021\276\276`\303u\276\200\245\327\275\262\247@\276\335\232\223\276*\247\002\277\030\315*>\304t\210\276\031G\344\275\317\037\302\276&,\177\276Z\245\305< \004\234\276\342\014\326>&\244{?\217\250\257>\t\014\220>Ly4\276\223\315\033>\220\235\327>4C\211;x\346\236>w\002D>\'\221\256\276\265\323\256\276\311\315\244\273k\006\007>\341\303+\276\333g\226>\274\036$=S\352\206\274\257\362*\276\203\240W\276+\265\030\277v\375\021\277\320w ?\021\031\211\276rn\'\276\260\275\311\276\023{ \276@E\020?mM\323\276\340\213\034\277\200]\204\275\372y\371\275`{X>_\250H\277\315\276\374=E\300\200=\202\271\205>L\241\001?\322+\310\275\026\034-=MR1\276-\027\234\2767\360\235\276\216I\216\276+9\277\276\204\321\330>3\021\005?T\t8>#\217/?\267\336H>\355\266\263>\362\370&\276\226S<\276\277o\002?t\245]>\034\374\226\276\347\364-\276R\370\265\276K\000\240>w\304??\307\237t>@e\222\276\275\310+\277\235\326\213?\346Z\350>je\035\2750\035q\276\257\256\200>g\373\005?\212\237\372=+\337\301\274\236\377\374\275-\253\t=;\345\004\277\336h\005\277\\\001A=\322x \276/\004\345<+\321\251>\226\220\336\276\237\005\220>\225\243\322;\255\301\234=.v\307\276\267Kd>\362\t\016\2779\325X?\t\307\254>\247I\315\275f\346\221?\257\305h>Z\221\342>\252\234z>\271\300\001?v\230\225>f\001\214\276\306z*?a\355\026\2774\3606>\0071\332=\t\365\002?\271\335\243\276I\305\311=K!\251>1\237\t?\200Q\345>\250\263P\276h\013\342\276d\210\376=\213\234\r>\376\366\240=7\252\262>v\233\333=\000\277:\276\031\362[\276\014\261\034>\201.\225\276\236\343\313>\n\340\217\274\364\311C\276\311!=?\370\315\025\277q\374\024\277\261I\326=\373\221\241\276P\331!?\316H(\275j\255a=\200+u\2741\215\356>\364\2008\276\314#\266\276\223](\276\tG\360>\324P\023>j\330\217;\222>\321=\266\032\246>?i\313>\331\243\355\276\034A\204\277\0135x\276\225}\371>\214\355\346>\226\310\025\276m\335\210\276\371e\213?\0367\250=\234*8?/m\">\\h\327\276}V\025\277\230x\014>>\274^>Jw\t\277#\024,?3V\031\277\336\026\247\273\254\316\202\275\247_\202\275\345\261\374>\345\223+=:\340\264>\307\0107>\t\2776=L\344\243\27625\326\276O\224\271>\033\216\207>\372\026M\277\350(b?\340e\211\276F\353\037=\374\377O\277\353t\250\276\260z\020?\276\237\305>\304V\350>\374\215\030>\313\037i\276B-\021>4?X\275~\257\027\276\332\267\002?\006pB>6<\002\277\203\330H\276}\337\324\275\335F\362>\260\2547?\001\300\002>\031b\t?\351\272\363\276:\024d\275\263\307?>\354\230Z<\267\202\363>\365\367\021>\031\222\245\276\302\373e?\375\317+\277\222\373\247\277\331Yp\2760\342\262>\327\027\031?>\341\341=\315\'\320><\307\027\276\t\201G\276A\344\026\276\276\362\022\276j\233\266\276\342)\335>Su\016\277\327\333\221\276\353o\010\277\311\326\246\276jk\306>\235\274\230>\r\350\177\277{\250_=\014\231y\276\344\317\016\277\230`$\277^\351\257\276\010\317\260\276\2263\333\2768\250[\276VZ@=\200*\334\276\251E=\277\213\325\234>rj\367=\206mU\276z<!\277Z K>\'\017\250\275.\226w>\021\266B\276\315\025\264\276A\2654\276\214I\216\276\245!\345\276L\333I>\235V\353>K\311\025\2776*0\275\355\344\206\275\231\340\210\276\322\234_\276\032bs\276m\347\030\276\202,\367>3(*>[\210\006\277\266M\205\276\327\027\307\275\311\212\254\276\017~\247>\373\307\013\276\235\207\210>\2104\344<\007\351\262\276^\371H\276|:\220\277\247\331\025>\310\203\255>l\375\242\275\341\221\031\277Z}\000<sY\301\276\305K\013=\233\302\346\276\203u\370=\305?\004\277`2\376>\373\270,>\343\001b>\n\005\326=\217\376\267\276\214|C?\024\324_?\216\033\001\276>#\321>I\257\004>\203#\273\276\033SG?1}\325\276%\307&?s\035\006?\\/V?\017!x>\"\260L?\202\327x>v\311\352\275[\365\216\275\036x\307>L\316\312=J\"\031?\005\215\010=\266W?\276\305\371\271\275s\305\001>\224\362\233\275\002\210_>\303\325\361>>\226k>\374\210\340\276\361\032i\277\331iU?\304\334\356\2762\376\315\271.\230v>\262\'\002\277\0044\303>\023=\017\275\326\332P>\022\263\256>j\365\253>\202\212\010\275\207a\033\277\236y\276\275\313C^>\372\002\313\274\313\215\264>?bL=\346\331L\277A\035\023\276\206\030\245>\306\246,>\371\235\216\275\326\346\304\274x\373\023\276\230\025\201\276\223\354B\277\335\3649\276\265\3725?h{R?Bo\027\276\245\270\335>\235\322\215\276\240\315\371<YU\304\276\\\205\033?\207p\216\276;W\343>\031\035\026\277%#\332>\007\357\222>\35337=\024s\247=lT(\277[\020\344\276q\216\204\276\263\231\000:\376|u\276\217\017l?\366^\240>\357\317\276>pV\337;\335\362\021\2778\013\001\276c\200E>,\364\251>\246].\276q\013\344\276\213\272.?\340Z\034\276\023<\251=\222\233\216>\370)\265>4\316\024?\360\271\245>h\203\244=C\274\230=\221S\005?\265:\000?\311<\366>\'yU\276C)d\276R\017/<u?0>d\262O>\340r{?;\317\003?a\223\234=\233u\267\276\3265\214>\263D\307>p\023\237\2765%Y?@\316\341=ZV\376<\250H/?Y\316\265\276\'\362W\277\016\037\270\276\242\275\342=\275\207\341\276F\312\201\276\2023\300=\245\267\236\276\367R%=m\327\235<\341Y9\277r!\211>\317\324\004\276!R3\276d\204g=\361h\020\276\215\t\000?\354\372\304>\340S<\276$e\365\276J0\345>\013\362\"\276\306\275F\276G\216&?\026\373\'?\213\267g\275\245\332!>\346b\342>\260j\274=\300\217\352\275\364<Z=>1i?p\220\006>\265\343\013\276g>G<EZ\004\275O\022/\277|T\232>f\030~\273v1\324\276\030u\222=wb\245\276\332\210{\277,\257f?:f\324>aDM\276x\275b>\006La\276#\360\202\276|\007\233\276b\304\357\275\014\255\331>\353Bc\276u\223\t?\347\342\006=\014\021=\2765f>=\265r~\275\001\326\222>\204}\010?\277I\033\2762\031\255\276\033\226\260\275\203\2769=\251]\031?\325\203\312>\036pL>\014\327\256>{\304:\277\300\217\270\275\205\376\323<\340\333\002\277)$V?\023\367#\277\220\302\313=\323\257e\276\220C/>$4\003?Z[3?a)\332>\344\025z\276\343\247\320>\340\235 ?\353\207\213>&]\026\276\214\2502?\345\350\365\275\202\352I\277\2078\261\274\252!i\276\207\254<>3\377\244\276\206\303 \275/\006\377>\246\314\307>\310\204\244\275\000\035[\276\267\035\315\276 \251o\276\206\260:\277\311\346o>F\211\017\276\313.\303=}\277d\277t6\213\276v\354*\274_\360\231>\013\017\023?\221\374-\276\333\223\371\276\235@\251\276\240|4<bf\016>\007\317\376<N\301\260\276\251\353\033?\016\211\365>\177\016\226\276\317a6?a\212u>\301\035\027?\213\035\252\276\210#\203=\025\225\221;C\307\264\276M\341 \277&\2557\277 \371e\273\317\375\306\276\000\032\010\277@7\013\277\345\262\276\276w \021\277\243\236\232>\254\356?\2761\344\340\275\232F\001?g\3005?\034\241\263\276V.\265=\027]%?\344\262\267<\013%\332>\246\262A>\371L\342>\337\202\027\276k;\272\275\n\032\345>\230\006`=\220e\024?\2417\231\275\007O\206\276\017\3017\276\301u*\277\350u?>\020\347\360\276\307T\022\277\257\302e\276)E\236==\375\213\2765\255\033\2763\211c\276\304\250\003?c\216\300>u\\\334\275 #Z?[\245\374>\270\201b\2765\347|?\304\367S?\177D\323>9\271\346>\306\374\366=\r\326]=L\247R?l\200\347\275N\275`>d\332\340>\007\325\351;\266,\017?,\004\250>\230\303z?\201\3128\276OT\204?-\245\023\276\205\177n?\277\255\320>E\217 >\020\325\025?q]\014\277\360\322%?@l\267\275@f\237\273\307\"!?1\3610?\356G\004\275\335D\250>\244+/?\320\t\267\276\0240\277\273\272\252h\277\205\342\355>)\317\227\276\236(\017\277\t-\302>?,\330\276$\034\003?\261\216+\275\007\246Y=\0037k=\216\\(\276\200\017\254\274e\332\246>(Z\244\275\001\371\237\276!\362\366\276\323K\251>\221\023\013\276[*0\277\307,R\276q\351\217\275\351_\312=\202\026\305>5p9\276\352)2\276:\264\377=\334\315\003?K\206\010?\303\333\263>\236\206-\275\301\317\304=\r\016\342\276T\252;>\277\261\323>u\004i>T\034\367\274\346\266\010?+\333\217>u\312;\276\262q\031?\004\276\t\277\257:\034>]\212+\277\237\035\226\272;\276\353\276\031]\016?\250$\006\277B \202=M\021L\276\331\tY?\352o\214>\034\241\357\275\010\332P\274\360\235\302>\230;X\276\370\325\375>\331{\216>\244wg>\350\323~=\305\257\013>\021\323\366\275\366\373\270\276,=\340>\342\357\000?\305\261\220\277\362\246\301\276\276K{\275\203\340\252\276b\237Q\276u\214I>\252J\n?\353\001j\276\003\254\370>\020C\221\276^\021\373\276\256\350\356=\330:\346=\237\300\017>\3522l\276\227A\242\274:\336\273>^\'\226\276z7/?\200O\002\277^j\216\276T\000\231=\177\3325=X\211Q?\363\247\202=\017\201\253\275\027\260\200\275\201\016\226>.\370\303>\265_$=\200\2243<\374-\000\277O\235\346\275+\257\251\276\253\312\342>g\337\255=\2261;\276\245\206\257>n\201\222\276:\346\333\275\325\367\363>\367\357\261<{d,\275\013B\241>\325&\203\276NL>\2772\245\234\275\027<\354>A\370\333\2762R7?\206h!={t\220=J#\200?\221\242T?\244F2?u\377:=\001\343\202\275rnJ<\276?\232=A\371\247<\216P\255>\226\031z?\030\3473\276\205:\276>4\365\254>\262\264\024?\257\216=\277\336\007\222?\312\235\246;\215\020U<\211%\027\276\033\256U\276J\233\026\277\333\335\257\276\205\3410\276uGM?\324|\006?0\213\204>\310e+>&\337\004>\212\374@?\217\244\233?b\010\006>\247\212 \277\336\'*\276\276\211\224>?\337\274\276\346\3422>\276\357\007\276&\r\000>\253n\306>q\354\256<Tf:?\"R\036\277\255U\301\275b\210\210\276\031\t\241\276z\201x\276\000\247W?i\371-\273\373\007\260\275\255\363k>z\366\226>\346\347\237\276X\336\300\275\372\2279\275\n\221\333\276X\337\231\274\244\023$>\334%\306>\245\257\235>\276\253(?\216\202\205=\240\242F\276\360=\024>(\346\031?\327\'\257>\240\004-?D\020\003\277?\356\302>/DD\277Y|\020?\364\371\035\277\342\016\010?\307kU?\242\242\234\276\364\226\223>\305\311\217\274Zb?>v\014\374\275\330\310h>\333I\022??\230\233>h\365*>\245\032??@\036b>:\2705?\311\247\020?\207\037=\276Y\\R?\321< \275\265\177\002=\373\212\321=\310\332;\276\333\213\213>\236\007&\276f\227\023?\037\275\373=\367?\310=\370s\262>\022@\202>GG\375\276\333\2576?\347N\325=-\303\227>[\374\207>\334\214\313>PC\t?\037\317\237\276S\270\030?F:\357>u#\202>$\025\025\276FS\245\275\263\307g>i\177\322>o*\032?\274\035\004\277e\346\274<Q\253\203>\205V(\274\250\212\306\276\027\"H?\2575\303\275\000\357\031\276\213\031\243\275\350\177\200\275i\024\034>Y-q>\001-\277>\033\275\261=\"f\220\276\330\374\346\275\310\365\036=\267\217\026>\\\354\\\274\r\017\001>\336w\010?\031F1\277\356\270q>\345\"\324\275\t\225\337\276\233\034\366=a\214\037\277\240\304)\276C\222\324>\367\001\256>\266\340Y>\306\2419\277}\275\257>5~,=\205[\326\276\273\003\347\276?\303\252;\352\264\326>\352;\351\276\226\305.\276q%\335\276\316\365m\277=\333B?~\373\264\276&\365\323>\346~X=\277\367\"\277\303\214\016?\225^\305\276&N\010?FcO\276\'\331\027\277\224\277\265\276t[\'?\2676\005\275\225\264\n>\341\234\310\276C\247\000>\334\206\365=n\357\013>\025\003\240>\213\350a\276\007~\365\275\0330\021?\255\320\317>\262\260\320>S\256U\277\027b\205\275\340\353_<&\344i\277\270\2463>\215\301\210\276\025\0174\277\275\373r\277\031\361\014\277\230\2172>\341\353\202<\200\'\r\277\034+\341=\226\367u\276\265u\031>\257\257d=\226\245\354>U\021\353<\2161\t\277fq\212?<S\242\276\271\374\216>~\273]\276Z\333\233\276Y\3352=y\007\263\276\270\267\023>o\313\230>\375\366\346>\315:\202>\324;-\277\261m\312>\037N\325>\314\024\201\276\347$V=d+\206\276\324\331x>\023\027\356>\366c-\276\302\260Y>k\003\320\276\r\256O>:j\026?\321\262\214>6U\000\277\327f\005\277\254\370\235\275\002\032(>v\300\"=I6\266=\225\343\373\276\001\036\220>\363\253&\277{\247Z\277Q\273\'?\365B\237>Jst\275\300\2013\277\303\303\203=G\r\023>\005\027\372\2766\035/>\005\336\312>\002\222\271\276\210\023\'\276\014\256t\276\337\022\224>\033lQ\276\272\023H\275\027\216\014\277\220q\307\275P\033\341\276\376\334\374\276\224\321\030?5J\267>\2756\226=ASj\276/&N\275_(\034\275\0303\237\272\205\365\226\276+\020\007\274\351\206\007?\377\311E?\201\303\270>H\217\006>\t\257,\277\016\323\177?b\200z\273\254\200\204>\373\224\343>t\265\311\276\024\212v9e\364\265>x\n\235\2766s\220=\377*\022\277{\360\221>>\250\233\276\201Y\336\275^\346\214>\2212\235\276\345c\271=Z\2221\276\225C\223>_\033\231\276\227n\022?\236\017O?y\265\034?v\364\241\276,g\033?\324\210\271>?\237\030?!WH\277\254\273\033?\230@\230<ii2?B\"\375\276q\346R\276\251\335\352=\321\344\352>B\303\006>\252\275\321\276P\201r\277\316\033\271>8\345\362\276\2717\334\276\273\222\370\276>\223\021\276\364\024\236>\221\307%\276\224\323\000>x)\255\277\205\025\037\277Q\326\020?\350\370\006;\213\237\016>\021u\022\2770|\016\276\030\010\002>\373\247g\276\375\252?\277\330k\217>\2541\202>\224\304Y\277\237\307\220>\323O\360>M\037\253;\277M\220\2738Vc>\206\274\225\276\351*\313\276\336\222\024\277\010~S\276c\261=\277i\t\333\276\254J\337\276\240\203\016\277E\360\236>>\020\010?\3315\263\276\3612\213\276\306,\007\276I[\264\276\"M\357=\364\226\204>.\003\r\275\265\317\014\276S\034\004?`\377>=\320\204\210=\261\223x<\246U>\275\0321\240<\361,\005>\277z\245=\373w&\277\352\243\023?\222U\001?\030(\261\276U\245\367<\263&\273\276\375\242\313=CP\205\273\025\212\'?\t1\233>\000\333\301>+\3638=3p\377\275mJ\202\276\342\304\205>&\375\342\276\223\245\020?\356\275\322>\332\352q>&\203T\277k\004\305;\230\017%\276#\205\303>xX!\276Yn\333\273?\374\231;\254\253\336\276\377\013\016\277\356\337\000\277@\335\241>\205\223\336\276\251\033\267\275\352fx\276\330\177\372=\323\227\013\277\254\221\333>\004[\021=\362o\217>\361\312\r?\255\211\240\274\273B\366=J-\034\276\000Gd\275\332\203\326>R\252\020\276It\342>\336\223G\277@c\237>%B\253\276\372\376\r\276\006\351\201;\347\263\212>x\221\262=\273\346\220\271\322\260\205\2764\345\367\275\023\031\235\276[\360\376\276\316\265\310>\226\211\340\276y\235\314>b;O\276M&\212;2k\002?a\361%=\367lM?q&[\275l\3734\276K\357\226>W9\213\275j1\333=\010\362\036\277\234\237\342>\337\374\177\276\177\314s?\224\223\002?\376\271\364\275\227\273\036\277\321\315\333\276\350\372\266\276\002\177\037?\203e/\277\r[!>\355\265\333=\322\341\t?\223y_\277\300\'[\276\310p\032>\337q\005\277\004\216\254>?\255\237=\005\267\245>a\3507?\261\207[>C\305S\276\364#!>\234\004\317\276\343\217\307\276\345\006\305=t\3276>\233.S<\2516\213\277\2716>=\217N\376>\311\nP\276\303t\361<\371\212\274>\372\031S=w\272\344\276\356\230?=\335\200/?\0350\t>%\252o\276<\005\237\276\311\211\177\276G\330?\276f\357\361>k\367p\275\032I\250\276\t\333&?1Om\275I\353g\277\027\330\221>\275\340\037>s4\206\276T\362\003?u6|>b\"\016\277\331\r\037?\'\340\006=\375\031\274\273)\266\213>\237S\374=3X\013\277\\/\226>m\026.?Y\305\226\275\03264\2770\032\320=\252e\n?\346\2361>j\226\026?\370\245\314>\341\003\261\276\271\260\330\275{\212\240>\177\030\007\276\262\240\020?\352\303\221\276\225\344\t>\221\214?\277\224\327\031>\\^\354\276x?5\276xcm>H I\276\360\220T>\374m\347\275\307]\261\276\332\031\327\276\n^\031>7\243\234>\220\031g>\301\363\307>\002\022\031?M\005>\276\336\301\312\276\3763\001\2760\376\323\275X\234N\274B\206\317=\276\007\367\275qF\342\274\202\020\233>n*:\274\322\271\014\276-\214\346>\233e\244\276\004jC\276\006\233\010\2750\353\013;\345m\213=\020}\201>\270\345\t?F\264\363=\215W\026?\325\2272>\264\365\363>\344\003\323\276e\237a>\346\000\245>\237\005\322>j\256\201\276\001\002\262\276\002X\337>\227\272\005>\204\005\356\276ju\240\276\210?\307\276\246\234V>0\225=>\002\360\351=_\365\272>\271\317\020?u\027E\276\03726\276 b\274\276\004i%?r\032\252>\372\273\n\276\0354\300>?o\301=\024 \217\275\237\277Y?\332\250\300>p\027b\277C\013\017?\346Jy\276\231\261\223>\315<\033?\021\311\353<p\372\322>\377k\303\276\177}k>Cz\336\276\242X\000\275xM\324<\345\231\326>[\'\376\276\304\271o\276\366q(\277_\234\317\275\211\n\250\276\202\361!\276K\255$\277!\021\213\276\2263\006?\033\021\251>!G\221\275a\3211\277a\305\257\276\202\362I\277\026\302\366>0\224\261\276\301q\225\276v\355\032>\277\\\033\277<\333\352\274\242\3442\277\327\237\025\276\236\305D\276\320\301\025\277=\205\373=\204)]\277\2477\t\276\3748c\277\346SG\276\301\326\366> \214\201\277&\217\225>\030\366\222\277\250[\252>W\0073?\201|\277\275\266\342\340\276\262D\\\277|r\021\276\002\356\331>\265\221l>zW\250\274E\201)\277)\234C>\260\201\004\277\277\0050>\023B\224\276\257\0171\277m#\270>\245\016;=\343\341,\277\364U$?4}\310>I\345L\276\2450c>U~u<\325_\335\276iV\312>\374\016 \275\223\370\227\276\016\324\342\275<Ex?\264\306[\276\266\374\226>\227\261\203\276x\250\177\277J\230a\276\3347\024\277\310\220\245>\007X\320>\215U\025;S\214d>\rM\214\276\263\001\033?y\030\323>t}t?\334\220\364=\355\245@>\336\225*>AI\020\275\241A8?p\370\331\276\271\332\003>\215\"\270>YMv>8m`\276\322.K\277h\033\212\273\254\235Q\2756>\250\276\321\345\014?\223\237\025\276*\317\031=\366\304;\277mYR\276\016\317`>L\325\371>\014\326J>RF+?\235X2>Lx$?\211\t\202\273\244\274\205>\325\035\007?w\354(\277\317\366\352\276*Vh\276\362|!\277\303\240k>4\006\330>\224\245\222>\020\342\003?\345\027\373>@\262:?\373}\317>\334\213\341>\204\020\377>\032\263\027\276s0\361>XJ\307\275n\3056?\343\031\'?N@f\276C\323\037\277\317ga>\213\021\225\276\3234:>\372\336\000\277\020\035S\276xf\n\277H\200\255>\300\013\003\276\231\377J\276.\200\003\275\215e\243=\361\244\004\2778UN?\346\332\277\275\000]j>@\212I\2760\321*?rp\207\276\002\3077\276\357\3412=G\375\205>\0306\014>\033\372|>\320:\276>\244\364\225>\366K\361\276\000\261%>\013W\237\275\243\223C?;\272\261\276\242V\264\276\210\225\313>J\230\344=/\233d\276t\236\201=P\200\016>*\301C\277Z\305\210\276\256k\023\277\252`{\276\246\263v\275\320\001\340\276\373U\035?|K\t\277\342\344\203\275\350\024=\275\260J\016\277W\276\030?\323\010\217\276h)a\277\201\321B?M\004.>\317g\013\277\"\376\217>\345\\\277\275&\237\244>\016\2503>\346\020\257>\254\334y\277OA\366\275\363\357\261\276\216\037\345>l\344\352=^\004e\276\010\274\252<\333\247C?#\334\346\275\324\233\346\2751\034k>H?%?/\332h\277Wu\200>\364\377\323\275\314Wu\2760\361)?fI\215>M%f?\3565\013\276_\013k\276\261x\235\276r\274;\276\237\364*?\021\277\320=h-w\276\177(\215\2777\207\002>\225N\014\277\363kB\276a\264\360>\306)y\275<\257\246\275x{\267\276p\361d\275\236\271\013?\3231,?\345\006\203\276\335`\345>\211;\006=\343\232\265\276b\364\304>\300\340\002>\217\177\013\276\316\317\263\276\201?!\276\003-%?S:\262\276"
      }
    }
  }
}
node {
  name: "tinyLPR/mobile_net_v3_small/bottle_neck_2/block/pw_in/batch_normalization_6/ReadVariableOp/resource"
  op: "Const"
  attr {
    key: "dtype"
    value {
      type: DT_FLOAT
    }
  }
  attr {
    key: "value"
    value {
      tensor {
        dtype: DT_FLOAT
        tensor_shape {
          dim {
            size: 88
          }
        }
        tensor_content: "\362R\237?R\327\200?\247\367E?ai\220?\001\te?/\037\363>\375\216`?\357\026\220?\220f\201?=\300s?F\226\315?-\371>?\320\265\030?S\305\205?\324T\225?\326\230\325>\230 ,?&\251\211?@#\'?\276\313<?\317C\'?\225\310g?\363\346E?3q\274?s\214\211?\252N\222?\261\003\301>\261\365\234?\030>\214?\311\225;?,\240`?\221ex?H\304&?\266\235 ?\2720\366?Z\252\361?,F\344?\261\327\256?\276\311\224?\202TI?8\261V?W\246\324?U }?$IY?\332\220C?\351\326\322?\234W\264?`\033k?\303\364=?c\204\367>\363n\256?\347\304\272>5?\240?/\036l?\356D\335?\376\ro?\216\365\204?\210\267\241?\332\030^?\371Z\221?\001^:?cH}?\230\214\343>^o\231?\253o\240?\247F_?/\213q?qa\221?\200\373)?eu\205?T\322\257?\321\257\217?\264~\263?\201\335.?k\'x?\306\366L?z\007-@K\373~?\224v+?\252/n?O\250\213?\256\305x?u2a?\360\344\236?\021=O?l/\035?I7\241?\341\226Y?"
      }
    }
  }
}
node {
  name: "tinyLPR/mobile_net_v3_small/bottle_neck_2/block/pw_in/batch_normalization_6/ReadVariableOp_1/resource"
  op: "Const"
  attr {
    key: "dtype"
    value {
      type: DT_FLOAT
    }
  }
  attr {
    key: "value"
    value {
      tensor {
        dtype: DT_FLOAT
        tensor_shape {
          dim {
            size: 88
          }
        }
