node {
  name: "input0"
  op: "Placeholder"
  attr {
    key: "dtype"
    value {
      type: DT_FLOAT
    }
  }
  attr {
    key: "shape"
    value {
      shape {
        dim {
          size: 1
        }
        dim {
          size: 64
        }
        dim {
          size: 128
        }
        dim {
          size: 1
        }
      }
    }
  }
}
node {
  name: "tinyLPR/mobile_net_v3_small/conv1/Conv2D/ReadVariableOp/resource"
  op: "Const"
  attr {
    key: "dtype"
    value {
      type: DT_FLOAT
    }
  }
  attr {
    key: "value"
    value {
      tensor {
        dtype: DT_FLOAT
        tensor_shape {
          dim {
            size: 3
          }
          dim {
            size: 3
          }
          dim {
            size: 1
          }
          dim {
            size: 16
          }
        }
        tensor_content: "``Z\276\251M\251\274\246F\215>\204#p\276l\205\270\276\327\324\332\276\217u\260=7\324\203=\352\374\030?!M\316\276\340\376S<\372k\312\276x\221\213\276\237\225\332>\271\351?>@\225\261<\323\007*\277\377x\231>\001\200\222\276\030\0234>\347\374-\277\307M\216\276\363\242\211\2775i\222>\033.\257>\030S\312\276H7\246>\301\226Y> \327\017?\2412B\276\264\004\322<\244\325\021\277\250\352\010?E\345\023?h\222\207\276\001Z\260\276Q\353\322>\177L\343\276\220MG>QQ\202=\362\302\200>\034\377\000\277*\247`<\222\236\261>\r\301G\276\277gC\276\260#1\277\010d\001>\375\237\342\276\247\354\271\276\362\222\001\277\302o=\276.\003\212\276q\367\211<\203\336h\276\311d\257\276\354\017\230>=Q\002?O8\236>\036\030\000\277L\000\336=6P\345>\373\310\r?\202\372\006?\t$\247>;2\034\277\302O\322\276\240\000R?\\\220e\276\213&\177>\227\031\r\276\250\r\016\2771\301\250\275\302\364\025?\224\324\310>XM\177>2#\"?\263\373*\277\233|\212>/\265\014\277\251\356\215=\031\300\353=\026H\226>\251x\317<\345\311\227>\367Ik\276\317\210\225>x\321\025\277\314\210l\276\035\375\350>\345,,\277Y\227\020?a\371\373\276D|\020>\302\256\302\276\316\324\203\276\001)\032>\275D\321>\216\310\276\275I\177\013\277\341I\271>\232\216\313>\341\020\303\276\004\004\232>\270\352\240\276\301\207\325\275\354\200\274=\255:\317\276n\253\224=\274\224\200<\375\017\234>p}+?En\267>O\341\274\276y\017\360>\303\220\341=\352Z\007>\177v(?4\001\312>EVw>\355\352%\277\210\2765\276\036\211,\277\020C\212\276O\002\024\276E^\323\276\323\307\276=\274\035\304<\260\231\241\276\351\273\223\275\321\333\000?\267\2751\276\372E\305>i\236\261=\320\325e\276J\013\003?c\2427\276\361\373\371<\323.\323\276\316JX>\266?z\276\300\213\324>3u\276\276?\250.\274"
      }
    }
  }
}
node {
  name: "tinyLPR/mobile_net_v3_small/bn1/ReadVariableOp/resource"
  op: "Const"
  attr {
    key: "dtype"
    value {
      type: DT_FLOAT
    }
  }
  attr {
    key: "value"
    value {
      tensor {
        dtype: DT_FLOAT
        tensor_shape {
          dim {
            size: 16
          }
        }
        tensor_content: "s\231K?\324ym?\014\246~?X\233s?\362X\212?\016X\234?-\257\226?\266v\301?;\235|?\035\302\343?M=\201?4*\245?%=^?/\266P?K>\235?B\\\231?"
      }
    }
  }
}
node {
  name: "tinyLPR/mobile_net_v3_small/bn1/ReadVariableOp_1/resource"
  op: "Const"
  attr {
    key: "dtype"
    value {
      type: DT_FLOAT
    }
  }
  attr {
    key: "value"
    value {
      tensor {
        dtype: DT_FLOAT
        tensor_shape {
          dim {
            size: 16
          }
        }
        tensor_content: "P\374\305\276\361\021z\275_\022\027\275FV\257\276\355P<?\364\227\331>MyF\277$b\002\276I$V?\317\241`\275\260\206\240\276Q\226\237>\023\245\222<\260F\212<\236,\020?rz\216="
      }
    }
  }
}
node {
  name: "tinyLPR/mobile_net_v3_small/bn1/FusedBatchNormV3/ReadVariableOp/resource"
  op: "Const"
  attr {
    key: "dtype"
    value {
      type: DT_FLOAT
    }
  }
  attr {
    key: "value"
    value {
      tensor {
        dtype: DT_FLOAT
        tensor_shape {
          dim {
            size: 16
          }
        }
        tensor_content: "=\271\213\275\n\306+\274L\032\215\274q%\340\275\230y@;\266\036\255\272\264\311\265\276\240\311D\274\342\353\320<uvU\2732\355>\276\200\363|;\351\217\203<\004`\335\273\205k\305:N\030M\274"
      }
    }
  }
}
node {
  name: "tinyLPR/mobile_net_v3_small/bn1/FusedBatchNormV3/ReadVariableOp_1/resource"
  op: "Const"
  attr {
    key: "dtype"
    value {
      type: DT_FLOAT
    }
  }
  attr {
    key: "value"
    value {
      tensor {
        dtype: DT_FLOAT
        tensor_shape {
          dim {
            size: 16
          }
        }
        tensor_content: "\217}L<\306\023e<\017;\245<d\256\212<s\031\001=\361C\036=\354n\331=\310\301y<wo*=\003\325\220<Q\251p=\212\003\016=\375\005I<\376a\017<V\334\030=\252&\263<"
      }
    }
  }
}
node {
  name: "tinyLPR/mobile_net_v3_small/bottle_neck/block/pw_in/conv2d/Conv2D/ReadVariableOp/resource"
  op: "Const"
  attr {
    key: "dtype"
    value {
      type: DT_FLOAT
    }
  }
  attr {
    key: "value"
    value {
      tensor {
        dtype: DT_FLOAT
        tensor_shape {
          dim {
            size: 1
          }
          dim {
            size: 1
          }
          dim {
            size: 16
          }
          dim {
            size: 16
          }
        }
        tensor_content: "\234\370\314\276X\345\232;%5\217>\300\316=>>\306\177?P\346\371>{\313\313=_vA?\276\206\233>j\254\225>\300\332;=^\2272?.\267\345\276\371\300\324>\316\033\204=\267\000\365>\366\036\026?\367\347i\274r\352S?r\276\327?\326\343\331\275]c\024\277E9^\275\275\342\214>\032v\267\2769\362\003\277m\277\234\276z\2265\275DD\000?\010T\251\274\255\275\n?\301)\212\276\330\364\257>u\213|\276\375x2>\351\037\224\276u\206\313>\207\312\036?\025]\003?R =\277\232\234\200\276H\252m\276=.\253\275\317\200\210?\335\275\231\276G\\y\274\tGM\277\003\377$?\256r\374=\216\032o?&\211\306\275\253\277:\277\367\005\304>\0139F\277\230\255\037=\232&\342=\204\267\223?\267\274\004\277xT\303?6ip\277\263\335\256\276\221\306\236\276\241`\207\276\002 \232\276\\z\256>\202\035\035\277\335\237\013\277\251K\273\276Y\242L>\204\205\210\276\371\370\303=\t\242\030\277:Y\001\277\0006.\277\257\226e\277lI5\277\256\261(?\302\220i\277\032\263a>\257\324\003?\274|E\277q\001\361:\334\277\204\277\211j<?\"\277\272=a\324]\277\243\371\'>\312r\212\277\275\356:?1\026\361\275\207P\">\363It\277\\\266-\277\366\336K\276\264\367\212\276\214\035\352\275\255\361\000@\305\033\037\277\3241\215>\002\277\244\274\343H\341?\252j\206>nvs>\014T5\277$%\320\277\367\262{\276\257\317C\276M\346\317>\023\343\020@\237\305\330\276\375\335\206\275\322k\302=\255\024\355=\351\020\200>\257\235\016\276\276l\">\205\237\036\276\330[\263>`V\245?\343:\233>\005\3169>\201\\\032>JV\204>\346\256\304>\032\202N\276A\025\320\276t\026\312\276\370\256\253\276\206\353,\275\247\0353\277Vo\014\276\351#\203\27788\033\277\263^\313>a\020w\277\205\325\272?T\273\256\276\273\255\317=a\024\325\276\201\3520?\362\257 >\013\007%>/\000\016\277\262(\220\277y\347\212>f\021\004\277\000\266==\221>=>\263\234\267\275\017+\305\276\237\301\204?3\260\035?\361X\203\275\330\244\250\275\227Y\205\276Z \013\277\034\252\002\276e\325%\276\366\035\013\277\\\345D=C\350e\277\255\246\177\276\006\346:\277`zw\274\226+e\277v5\203??^\337=\377v\010?\010\264W>\3728\027?\206}\204\277\230\2040\275\212\376\216\276=\336\206=\030\337\005\276!\201v\276\302\2121>;V\206?\350m/?\000\356\231\276.L\t?\204l\356\276k<\332\276\"\020{>9i\201\276\207\307\300\277|\325\016?\027\271\023\277\254\005\014>\033\242T\277\303j\010?\366\310\323>v]\010>cA??LTf=\034\330\274\276\302\345\307>\225\205M>D\010c\276\226\221T>hQ\331>\363,\317=\216|\246>\337\000\206>\2573\363\276\325\265E?\350\332\260;\347\376\036?F\361\225?1\271\'\277\233\344\207\2753C\014\276k\227\016?\331\226\027?J_\020\276\326_\215\276S\312\345\276\352j\237>9\036\033\277\324\020\211?j\027\"?\n\002\212?\213U\314>n\360\034?\322I\022\276\002\272\371\276\000u1\277\225q\353>\242\034\340\276\254\177\371\273\224>\210=:\032\240\275\344*\023?f\264\226?\344F\n\277\003MF>\267\366\205\277\330\332\006?\022\234#\276\305\273\363\276\272C\023?\253\210m\277\251\306\177\276w\232a?Ta\353\275Rl\363\276\243dl>\366\302\335\276\316l\t\277\323\303\262>\256\031\361\276r\030\313=\340\027\250>\352~U?\300u\261?\360|s\276"
      }
    }
  }
}
node {
  name: "tinyLPR/mobile_net_v3_small/bottle_neck/block/pw_in/batch_normalization/ReadVariableOp/resource"
  op: "Const"
  attr {
    key: "dtype"
    value {
      type: DT_FLOAT
    }
  }
  attr {
    key: "value"
    value {
      tensor {
        dtype: DT_FLOAT
        tensor_shape {
          dim {
            size: 16
          }
        }
        tensor_content: "\251W\350>\345\204\271?Pq\276?\035\006`?\220\252\227?Z\177\220?\177E\206?L\353\357?9f{>ye\267?\017\002 ?\257\272V?\313+m>\271\240p?\327\r6?\271\344i?"
      }
    }
  }
}
node {
  name: "tinyLPR/mobile_net_v3_small/bottle_neck/block/pw_in/batch_normalization/ReadVariableOp_1/resource"
  op: "Const"
  attr {
    key: "dtype"
    value {
      type: DT_FLOAT
    }
  }
  attr {
    key: "value"
    value {
      tensor {
        dtype: DT_FLOAT
        tensor_shape {
          dim {
            size: 16
          }
        }
        tensor_content: "{j\005?\216\244e>\320\224\366\275qV&>\336\017&?\342\033\324>\245S\261>^\217H>\242/\201?\237\303\256\275_\363\r?\366U\010=\231g\211?\302\250\305=i/\311\274\271\272\371\273"
      }
    }
  }
}
node {
  name: "tinyLPR/mobile_net_v3_small/bottle_neck/block/pw_in/batch_normalization/FusedBatchNormV3/ReadVariableOp/resource"
  op: "Const"
  attr {
    key: "dtype"
    value {
      type: DT_FLOAT
    }
  }
  attr {
    key: "value"
    value {
      tensor {
        dtype: DT_FLOAT
        tensor_shape {
          dim {
            size: 16
          }
        }
        tensor_content: "J\311\034?#\021\264\277\260|\272\2777YI\276Y\257(=P\014\007\277\326\362\202\273\220\027\231>Q\277{\276P\317\355\276\321\000\271\277\230\276\326\276\242Q\002\276\261\\\345\276{G]\276g(&\277"
      }
    }
  }
}
node {
  name: "tinyLPR/mobile_net_v3_small/bottle_neck/block/pw_in/batch_normalization/FusedBatchNormV3/ReadVariableOp_1/resource"
  op: "Const"
  attr {
    key: "dtype"
    value {
      type: DT_FLOAT
    }
  }
  attr {
    key: "value"
    value {
      tensor {
        dtype: DT_FLOAT
        tensor_shape {
          dim {
            size: 16
          }
        }
        tensor_content: "\257\376\256?\346\201I@\023\177W@4\016<@\344K\372?B`\333?K\263\220@k\206\257@\233\305\331?\246\223\310@E\223\357?\305}?@\240l>@ \016\213@\313%\230?2/\024@"
      }
    }
  }
}
node {
  name: "tinyLPR/mobile_net_v3_small/bottle_neck/block/dw/depthwise_conv2d/depthwise/ReadVariableOp/resource"
  op: "Const"
  attr {
    key: "dtype"
    value {
      type: DT_FLOAT
    }
  }
  attr {
    key: "value"
    value {
      tensor {
        dtype: DT_FLOAT
        tensor_shape {
          dim {
            size: 3
          }
          dim {
            size: 3
          }
          dim {
            size: 16
          }
          dim {
            size: 1
          }
        }
        tensor_content: "b\037Q>\276\2104\276\244tS\2768\316\313;\211\343\221\276\367r\023?\001\203~>\001\235\364=\177\364\207>\001\226\356>\027J#\276jg[\273\265\350\303\275\024,\336\275\236\276d>\034\304O>`T\202>\312\233\302<6\327\361\276J\327o>s\025\326\276>\207!>e\022\004?\233\231\322>fO\327\276N\237 ?\201\241\001?mE\362>&^\024\277 \217!>rb(?\0076\016?\365\343\357\276>i\027?9e\224\276\210\001\360>O\324\236>[\240\003\277\267\267\304=\250\000\255>e\201#>\352\344\020\2742\033\234\276\021\270\347>\342\341>?\023\254\007?b\237\271>\220@\257>@0\366>\376\232J\276\'\036\016\277wS%>\364F\341\276\232-/?/>4?\235t\304>\221\211/?9\\6?\'\274\372\276\276\315\244>\206\341\347\275\350\312\000\276\017\025\365>\250\311\371>\'\223\232\276YI\322\276\201\313F\277Hs\'?\255\366Y>\236\217\310\276+\355-?\264\0312?\256\370S\277mV\326>\273hU?\2168Q?\002\3026\277y\237\031?\322\213$?PgV?K,\257\276\'\260u?\271\016{\276\226\357&?\377\001$?\256r\346\276}\277\005>\177\375\371>TH\007>\365\021:\276\224;u\276;\207\303>+X+?\224c\036?\244\317\\>\035\016\215>BY\356>r\024\255\275\317\t\272\276\360\312+>>\004K\276\231G\022>\342\017\357>\223|\226>AT\324>\267\312\277>Q8\221\276\317\342\211>\276\370\017<\357\365|=\317\266\245>\205h\304>\371\311=\277\r\266\257\276\013\377\306\276\362\032\367>4\225\030?\371*\241\276\376F\210>g\317\354>\344\366\347\276f\221\277\275\217\032\333>,>\315> \027\212\276\r\327\033?\306\\\216>_\330\264>\303-\003>\267|\322>(e\264<\021\233\222>D9\246>\t\265\277\275\365LO<~]4>\327\277\004\275\266P\236\275\375n\251\275\224\307\270=\307Uc> \377\261><h\026=\360\260\305<"
      }
    }
  }
}
node {
  name: "tinyLPR/mobile_net_v3_small/bottle_neck/block/dw/batch_normalization_1/ReadVariableOp/resource"
  op: "Const"
  attr {
    key: "dtype"
    value {
      type: DT_FLOAT
    }
  }
  attr {
    key: "value"
    value {
      tensor {
        dtype: DT_FLOAT
        tensor_shape {
          dim {
            size: 16
          }
        }
        tensor_content: "0D\032?(}\033?\030\241\024?b\275q?7\257)?e\0247?zz\222?\021\200\231?\205\223w??~9?v8\013?\232\256Y?{\314c?>\321h?V\352\024?\300\265X?"
      }
    }
  }
}
node {
  name: "tinyLPR/mobile_net_v3_small/bottle_neck/block/dw/batch_normalization_1/ReadVariableOp_1/resource"
  op: "Const"
  attr {
    key: "dtype"
    value {
      type: DT_FLOAT
    }
  }
  attr {
    key: "value"
    value {
      tensor {
        dtype: DT_FLOAT
        tensor_shape {
          dim {
            size: 16
          }
        }
        tensor_content: "z\005B=]\302X=\335\0229@\3077\271?\226,\213>\010Z\232=\372\031\\?\262P\255?=N\226\275\2023\260>\325Bb\274\333\265\205?O\226\221\275)\242\014?\1777\250>>\022\020?"
      }
    }
  }
}
node {
  name: "tinyLPR/mobile_net_v3_small/bottle_neck/block/dw/batch_normalization_1/FusedBatchNormV3/ReadVariableOp/resource"
  op: "Const"
  attr {
    key: "dtype"
    value {
      type: DT_FLOAT
    }
  }
  attr {
    key: "value"
    value {
      tensor {
        dtype: DT_FLOAT
        tensor_shape {
          dim {
            size: 16
          }
        }
        tensor_content: "\007\352\027\276S\305\312>\271j\214\277r\205s?\003c\004?\t;\337\275\262\322\256?\326;\345?\331\300\353\275\355\026.?\222{\t>F\231=?TG*\276\350\2127?R\313\006?\020\355Q?"
      }
    }
  }
}
node {
  name: "tinyLPR/mobile_net_v3_small/bottle_neck/block/dw/batch_normalization_1/FusedBatchNormV3/ReadVariableOp_1/resource"
  op: "Const"
  attr {
    key: "dtype"
    value {
      type: DT_FLOAT
    }
  }
  attr {
    key: "value"
    value {
      tensor {
        dtype: DT_FLOAT
        tensor_shape {
          dim {
            size: 16
          }
        }
        tensor_content: "S\261\326>f\376\331?\212\023\r@%o\371?\0301\014@M\304]?\025\270Z@\241\240\343@\265+\213>\2538\022@\226*\327>\374\006\250?\006\262=>2P\001@\217\253\226?Q\027\363?"
      }
    }
  }
}
node {
  name: "tinyLPR/mobile_net_v3_small/bottle_neck/block/pw_out/conv2d_1/Conv2D/ReadVariableOp/resource"
  op: "Const"
  attr {
    key: "dtype"
    value {
      type: DT_FLOAT
    }
  }
  attr {
    key: "value"
    value {
      tensor {
        dtype: DT_FLOAT
        tensor_shape {
          dim {
            size: 1
          }
          dim {
            size: 1
          }
          dim {
            size: 16
          }
          dim {
            size: 16
          }
        }
        tensor_content: "\001]P\276\3552\311<l\207??[\376\253\276\363\235\241\276W\237\001?\313\372\257=0\330\221>+\031q>T\340F\277\321\240Q<\371\373\235>4\304\330>\022\211&?\3530\321>\026\216\017?\316$G\276M\010`>\274\341^>p\200\324\276 \351\323\275\356F0\277\223\221\252\276\242\311\222=^\001\003=\231\0241\276}\233\">\230\342\203>\320%Z\276J\034\001>f\364S\277R&:\277\244\305\266>\001\0273?LF\335?\036\\\213>\262v\006\276\\:\036>\354s\262>\017\335\271\276k\246\\\276\356\2459>\276\245\256>\']\230\277#\331\000\277\211\226(\277\330\365\303>F\203$>\347\020\"?\2153\207\276S\333+?\374\262\274>\211\367\030>d\213\027=\322\023\003\277?N\274\277L\206\337=V\017\277>{\224\r\277B\003\'=\375\036\002\277X\207\217>\250,\230\276x4)>\215A\203=\303\035\331>z\004\030\277\244)\202\277\376\214\027\276\273)\212=\026~V>\260zG\276\033\333l?R{\335\276\022\346\014?:$9\277\236C6\276L?\266\275\374\325\350\2757\032\"=\341$\"\275\270\027\263\276\372\244\370>\322\3712\277^\'\231\276\345\315\214\275\353r\270\275\235h\\\277{\302%\275,\220\326\276\236\267#?\371\342\026=[X=?]\204\005?\226\263\223>\331o?\277~|^>\003*\220\277\334!\003\277U/3\277>\017\371\275\307\316\007\277b]\223?\320.\252>P\t\035?\300\330_?\223\206\211\276\351\346\211\275Z%$?@\350\036?\r\214\"\276\354\2735?\337\320\262>\331\370.\274j\032\323\276\241\014/\2772;\014\277(\370\221\277\276\321\007\276\314p\024\277r\204:\277\207e\200>NT\201\276\253\'\242\276\211\235\r>\342\324\307>\340\233\344>j\002\223?AI\374\276\004\323\031?\301F\276>Ke}\275\274\360\362\276\342pb\276\316\031\356\275\320\355\234>n\271\016?n3\234>j\r@\276c\346\202>Q\377\022\277l\311\257?b\306*=h4\320\276\3769\312>\230\2221?\335am?F\3551?\307\252\272\276\245\314\315\276z\231\236>\375\001P\276\014,.?D\330\230>d\003\203=\226\354\"?2\037\347\276\277$\000\277\256\214G?)&\216\275\353f\332\276;]\224>\026no>#\267>\276\271\036\022\277e\357\236>\234w\322\276-S\032?\232\202\267=o\355\243?\332U\266\2764\346\036?^\374\327<\035!5?6\230\376=\036]\361=|\373\356=\030\211\010?\307\271K>7\311\317\276\236\271\"\277U\"\211\276\312y\021?Q\247\217>\302#6\277\006\016\004?`\242/?d0\010\277\361/<\276\207l\355\274 lB?\300\355\026\276\275\210k\277\323Z\024\277\235\301\344>\222\177\250\275\306\244,\277\271\307\271\276\220\252D\276\322\245\006\276OL\240\275m8\000>,\t\276\271`\362\326=\316\327\202\277\230|r\276;/\032\277YB\313\276\342\371\261\277&\256\004\275\305\005h>Ny_>\013\376\315>\2528M>\224\332\017?\235\013\273\275P\016\251>\210\2326\275h\030\331>\260|\027?\263-!\277\273Q$\276R\303\323=(\235\013?\230\253\020>uf\026><z\007<\023\302)\277\323\220\276>p\327\250\276*\257e\277\232y\366>]\"$?\334\225E?\302\032 \276L\257,?%\245$\277<\274\333>\237\375<\277\0300\235\276|\037\026\276c\254B?\265yo>K\372\017\276\365\362\256\277\360/*?\036\323~=\334\205\207=\266\300\343\276\342\271\313>-G\242?\227_\251\276m&\205?\215\334\033=\237\217=\277\305fv="
      }
    }
  }
}
node {
  name: "tinyLPR/mobile_net_v3_small/bottle_neck/block/pw_out/batch_normalization_2/ReadVariableOp/resource"
  op: "Const"
  attr {
    key: "dtype"
    value {
      type: DT_FLOAT
    }
  }
  attr {
    key: "value"
    value {
      tensor {
        dtype: DT_FLOAT
        tensor_shape {
          dim {
            size: 16
          }
        }
        tensor_content: "\241\211\243?\217e\221?0\360\207?\024\362O?\3405\177?Q\246\274?\223\223\217?6\345S?\246\214\204?\005A\035?i\246\214?\222z\235?\216\371\217?%\274Q?Xbg?v\206\220?"
      }
    }
  }
}
node {
  name: "tinyLPR/mobile_net_v3_small/bottle_neck/block/pw_out/batch_normalization_2/ReadVariableOp_1/resource"
  op: "Const"
  attr {
    key: "dtype"
    value {
      type: DT_FLOAT
    }
  }
  attr {
    key: "value"
    value {
      tensor {
        dtype: DT_FLOAT
        tensor_shape {
          dim {
            size: 16
          }
        }
        tensor_content: "j\032\233;E\021u>\343J\021>a+|\2754\030\024\276\327\210K?Z\231s\275<\353F\276\004\n\320>\261\333\373\275\021\017\350\276\375\014\220>4\273\000>\003\360\271>\340m\222\275\031\022\002\277"
      }
    }
  }
}
node {
  name: "tinyLPR/mobile_net_v3_small/bottle_neck/block/pw_out/batch_normalization_2/FusedBatchNormV3/ReadVariableOp/resource"
  op: "Const"
  attr {
    key: "dtype"
    value {
      type: DT_FLOAT
    }
  }
  attr {
    key: "value"
    value {
      tensor {
        dtype: DT_FLOAT
        tensor_shape {
          dim {
            size: 16
          }
        }
        tensor_content: "\n#\334?\025-\005@\001\000\300@\204\204\240\277{\242+\300\036(\320\277\006\354\336?\346\031Z\300\224WQ\277\\\364C@\014\276\305?\315\267v\300\207\266\364\277\221\335\241\275\027\312\275?\253\263\'@"
      }
    }
  }
}
node {
  name: "tinyLPR/mobile_net_v3_small/bottle_neck/block/pw_out/batch_normalization_2/FusedBatchNormV3/ReadVariableOp_1/resource"
  op: "Const"
  attr {
    key: "dtype"
    value {
      type: DT_FLOAT
    }
  }
  attr {
    key: "value"
    value {
      tensor {
        dtype: DT_FLOAT
        tensor_shape {
          dim {
            size: 16
          }
        }
        tensor_content: "\260b\010@`mE@6\223(@\006NW@e*\207@=\004w@\327V\321?\345$\347?\247\361\023@\215\225\204@+/\032@\276\263\333?\t\313y@\360\306g@\377B\355?pzf@"
      }
    }
  }
}
node {
  name: "tinyLPR/mobile_net_v3_small/bottle_neck_1/block/pw_in/conv2d_2/Conv2D/ReadVariableOp/resource"
  op: "Const"
  attr {
    key: "dtype"
    value {
      type: DT_FLOAT
    }
  }
  attr {
    key: "value"
    value {
      tensor {
        dtype: DT_FLOAT
        tensor_shape {
          dim {
            size: 1
          }
          dim {
            size: 1
          }
          dim {
            size: 16
          }
          dim {
            size: 72
          }
        }
        tensor_content: ")w\005>\373\206?\277|\\\"\277Y*\255\274\352\355\376>\333\357\233?\2310c\277\351\206\\\276t\316\013\277qb/>\366$Y>`\022\021>\363\216<\277\272\272\226\277\"\2600\277v\023\246>(j\002\276\202\214\200>\330/\2649\373\272\207\276\367\247\001?\220S\002>s_\203\2750D\315>\"o&?r\250$\277\361\035\230=!\022\032?\336\336{\275\347x\360\276\030j\321\274\253do\277\336\225\027\277\026J \276\232\367\n\277\305- \277w\0342\275q\361$\2768vG\277\243\341k?\251\261\356\276\276\024\231\276\316\226\201\277\001o\002?Pw\242\275\000a\361\275W\217\001\277]\214\267>:QD?\\h\022>W\3226?\305G\'\277\343T!\277.\000y<|\374n?\202M[\277o\014\300\276\201\355\020?\244\312#\277\267\250\352\276*\2325\276\312GE\277{t??28\352>\004~\025\277\033\255\021?0\303=?\005H\020\277\213\273\247\275-\365\202\277\271.\014\277U\365\026?W\367m;X\325%\277\240q\233\276)\005\354=*\316\257\276;>K\277\034\326\205<\306\202\232\276)k:\276\262\376C\276\213\354@\277\372\025<?\223\261\311>q\247\037>%\263\275>\233C\263?\234\325\013?r\343\243?\350\036y>\246\324\003?D\346R?W\006\252>\317\231\231>$+\272\276\233\"\237\275)\rT\277u\243\366=\203\201S\276\243\230C>\346\357\000\275\207\370\031\277\332R+>S\021&\276\233\350\341>\370\020\256>.\256\371>\241\2675\277\223r\004?\325\302+?@\250w\275H\231L?\033\333\022?U\324)\277\240\027k>\222\212b\277c\340\036?\247\2729?\245\343\023\277\203\274\373>GXZ?\010\365\201?T,\276>\354hm>V\245\372\276\373f\362=!\272\024>\233(\301>\247\203\022?\310u\002>\330\230A?J\365\033\275\201o\313>@-\323\275\027\254\372=\241\323Y?J\202l\275S>Q\2778\335\336\275=\221A>=(\035\277\250\330M?u\2369?\263\035\243>\320\r\260\276\364>\215=l\347\311?\257\225\363\275*\243\037\276\252\315\325=)j\025>t\347b>\360\255\212>\244l\303\276*~\375\275O\247\215>\371\250\310>R\366\224\277R\312\322<i\267\254>U\220\006?\350\017\236?\'\r\023?\312\211/>\243R\304=\305\234\233\275\334\251\260>\240U@?\007b;\276\277/\350>\306Q:>\212\371!?@C\275=~.\366\276\nz\\?\336\200\264>\025\261D?\257\266\014?n\177m\276\021\343)\277@kX?\362\341i?\0160M\277\355\220\201>Xh|>\3457\014?\233vV?\007&q\277a\231\013\276\341w\016\274\217M/>l\017\301>\302x\204\275\2042\026\2765\303??\031~\252\276\2664\216\277\304\317\331>\026\372\331=\310\270\301>\351#/\276h.\324\275\246\205\000\277\310v\211\277\022v/>\227\3328\277\022\265\312?\'c\206>\212\223J>4`9\277\256v\272>\301\t\250>\314\355P\276\3167\013?\326\301\024\277>\211I\277\3553\332\276\316\003\371\276\334\027Q?\363\260\277\276\326\357\356\276I:\370>\337\357S?\036fQ<\350\013\010\277\315\305\323\276J\211\274>\222\031\277>\371\025\027>\355\025J\276&t\224\276\217\260\367=\373\000\306\274GJ\361=q\255\253> w\255\276\267[~\275\037ok\277~\211\221>\314\204T?\303\237b?\371\314\254?\004(K\277_\004\270\276Vu\211\276[(\203\277\325k\033\277\217\3447\277E\356\314\276y\000\003?7\225\202=\322U\355>\220\327\202<\005/O\277\243PI>\216\031 >\251}\222=\243\330\275>\203\242\272=\263\361\033\277\345\265U>\352\373\335>M\322\212>\301\256\021\277N\\5\277\367\336\013\277\356;\251\276\024\324;\276\236\334\026<\202\331\335>\363\014M\276\250\021\267=\231\346\t\277\2023\004\277x\204\207\274\257\255g\277\346\356\003\277\253\276]>,`}?vC\036>_\n0?\026F\270\276\032\224\014\276d\005\352<\356\255a\276$\302F?\240\302\326\275W6\356>\2078\201?\222\306\254\277\227\251\003?\314l:\276\322\256\233\276\314N%>ec\313>\323>\221>\374\312\034\277\251\271\207>\273:o\276\205\305#\276\254\277l=\250\220\204\276q\254\205>=\325\306\276\255l$\277$C$\277\310\254\303>\301\220w\277\311\230z\275\201\316\222\277\023%\177\277\211\030\237>\332\372;?#\352=?\010\351N>\365\203\354>\325\204\233>\202H\032\277\006\217\361\276\346\370J\277zVO\277\224\200)\276[\240\035?\024t\255>\003\257T\277\370\004\250\277\nS\276\273\202\354]\2778w@?\3269^\274\036\022\351\276\314\'Y;\303:\300\276\331\023+\276\003\333\026\276e\257\333\276\035\203\372\275\033`Q=j\364\245\274o&\2468K}\224>\355\334\244>`~\017\276\264\234\204\277\222\273`\277\374i\214>\260#o\277\333M\241\276\203\034\037\277\371\002\027\276H\300r\276\'\237\250\276\344\241\323\274\371L\217\276@\020\272\276Ur\031?\325\034\325>K\207\354>[\034&\2778<p\277,8\272>\314\213\022\277l\257\342\275\004\203X?b\224\022\277^M\222>H\364\034?\325\313\371\276<\207\350\275B\3233\277\20729\277%\273\270?\324\305\265>\207\034\370\276J@\001\277\n\3472\276\312\001\377>\363\333!\277\234~\266\276\355\357\201\276c\320\207?\353\256\013?\222\211\014?\315t\370>\367\324\205=\330hV?h\032\301\276\231\222\246?n;\345\275\2248\220\277\2501\326>TC\370\275\205\313!>i\374e\277\344\316a?H\360Z?\204\357\373\276F\024\002\276\352\240\337\275\204\023\204?8\247\036?\227\377\333>3A\037\276\027\240@>\251\340\032\277\305\0338?\272\r\000?\022\225;>\0208N\277\036=_\276LL\276:\316?\363\276\253)\231>&_2?\316K\317=\327\261}\277Kz\010\277L&1\277\275\265\273>Z\245\313\276*\035\207\276x\301\014?^\220\217\274-\277\244\274\016\323\312\276\256\243#\277`\222\327=\237\324\222\277K\026\221\276z\374V?u\340`>\333n\333\271\354\201\211=j\311\t?D\3763?\273v\303\275ju$=\342\305\022?6oD\277o\365\254\276i$\n?\030S\220\275\260\360\021?2i\374\276\223\354p\274\300\003\212\277 )}\276U\327\241>{\003\266\276z\377\000\277/\375m\276\\\177\202\277\201\352\344\276\320\006\"?\237}*\275\021ql\277Y;\274\276^\rf\277\t\000\"\277\323\026\265\275dz\003\276=\033\034>+\251\205\276\351~0\276\254\016\007?j\327+?\331\033\030=\312\326R>\004\275\242?\305\205\'\276\206_w\276\374\276E?\013\275\004\276\371\322\020\275\247\334\021?\304\364\202?.\346\363\276r\3622\276\264\231\013>\343\177w\277\036\214P>\211\204\001\277\270\375M\277o&\244\277\230\037\324\276)\367\027\277\300Z\351\275\373\212\026\2761\227V=\303\364\200\274\030\302\352>\374c\036\276\230\024\265\276\345 \005?zo\005?\026\001-\277L\335Q\277B\213\313>\235}\304\276G6\217>\371e\214>\361\344\037\276\371\215\210\276\251U\265\275\327\307\302\275wf??\325m\356\276\177\326~\276\234\026\307\276\257\203=?\'\361%?\244#L\277bm\232\276\"^\304\277\223\022\036\2775\272\255;\327\000\022?_\2221?T\220,>\\c\237\276\351\337\317>>\357\003?xV\242\276\034\330\365>\323\362\203>KoW>=\352D\277\031\265\254\276\246\315\003\275\253\342\036\277$\322\025>\0230\371\275\371:\311\276}\256\234\275\250;\030?v\262\227\276R\236 >\032\352\245\276\"\312\014?\361g\016>\346\303\345\276O\254$>\323\035\354\276\3705\036\276\034\3475?\335\300r\276\025=(\277\300\210\006?T\0002\277\321\025\265>\361?\302>82\030\277\320\3174\277\371l1?\303.{\277)\250:\276@\272W\272c\304\036>^\303\212>\003\250\347=\314=\324\274\345\271\330>\350q\005?\344]\002?6\371W=]-%?M\305c\277ZK\302=`T\026?O,\305<\"\251?=\351\207\026\277\003^\243>\010-\007?\303Z\n?\025$W>L,\004?\276\023\226>\036\326\377>\326\0368??*\356\276\254{\010\277\322t]?z\310\201>\336`\267>\346P\004?\260Xs\276\272\021\347\2754\273\367=\376\025=\277\310\362\223?\216\340\023?\267.\377\275+\224\234\276\002\335\224>\227\276e\276\200\033X=~\212\005?\367v9\277\320c\321\276\310\261\007\277:KO\276\315\200%?\363t\t\276\311q\307\277\216h\214\276\342\000\241>_\343\203>w\211\034>\'\221[?E\035\320>\374d\260>X\367\347>h~\370>\211\251-\277\233\332\322>\255\ne\275\013\356Y\277\235\270\374\276\365\361\265?B\242\220>\031I4\276\375\335x\277\032\'G\276\021\316\025\277\004\236\371>\322\306w=H\250\222\274%&B\276\240;6\2769\373\211?\350y\214\276[>\225\276?\013\177>W`\030\277\022\201\213=\366\271\243>\2255\016\277A\376\000>D\335\033\277Yj\361>\205\010\342\275\000\201\272?? \374\275\372o<\277J+\261=\217r\306>,\367\277=\212\313\351\276\307\361L?\306\307\250\274\275\205\220>m\317H=\370\300\246>\274\353\306\276Y5Q>\374\212\007>\370\271\234\275+\230!?\365B\236\277q\342\031\277\034\304\036>\242\251G?KCT\277\333cy\276\2233c?\004[P\277\306\300b>I\267\t?\002\351T?\003\277b\276\357r\355\276\364iW?wcz\276\311~\325>\341!\321>\243J6\277\201U\035?q\272E>?\337\371>&\034\000?.\265\207>\241*\201\277n\312\373=\263\240\352>[\341\370>\215\267\365\276O)\201<(\322\235<+\333\225\275\240a\216\276D\031p\276D)&=NU\005\276\013c9\276:(\256\276\263%\336=\262H\313>\177f\240>A\321\202\276\\.\233>\313@,\276\260\357\250\276\206%\241?2\031\200?\266.\326\275\336\216\373\275!\370\033\277\337\010L?\224\377\216>\223\024\230=\224\230\025\277V\213\322>\307\221$?\375\364\037>I\006\315\276\216%\374=\231\323i\275\205\177\353\275g?_=\3140t\277d\024\266>\007\375\342\275\257\230\216\276\200\244t\277\230\237\216=\221;\332\276Z\235\016\276\240+\\?\202}\001\277\305\312\227>)\264\231>\352Gd>\247\025\003?>{\251\276 \252a?r,\214?\225T\315\276\353\262\025\277\260V\301>W\270\316\276\272\017z?\262}f?\035\266_\276\222\207\021\277\351\267\277\276z\315\033\275\000\231\311>\026\245\314\274PG}>\221\304\016?\217\274<=w\370\204?\213\265Q\276\342\036Z?\345\231\250>\266^\020>R\276\210?\016;=\277?\304\206?y\027\302>\013Yx\273@\376.?\325\221d?Yzq?\357K\365>\241\035`\276K\214\000\2766\363&?;P\242>L:/>+\201b\277\342]\010\277\246\\j>\255Bd??\373\344>+\r\352>E\324\304>\210\"\201?\023\240U>a\305\237>y+\353>\211\367;\277\267\177.?\223\340T\277\026?2\277\317J\221>\026\010\016\276\365@o>By\347>\035n\256\276\240\240\332\276\031\214O?\346\323i\275\022\227\335=,+\316\276\227\343\311\276\231\2473\275\224\300\346><F\213?\363|\214\276\201q\205>$\323+\276\273\376\223\276\274\366x?\013\277\304\276H\377_>\323~2\277Cq\274\276}i>\276kG\r?w\2039>\273\271J>\363\227\365\276\240\207o\273OqY\276!\316\303>\013\313\263>\026X\000?\216{\204\276\374Q\267\276\306\254\304=\231k\210?\256\3733?a_\224>C$m?-\376U\277in\376=W\024\200\276\360\212)\277~)\220\277\204\313\304=4k\201>\367\3135\276{\031\023>\220p\222\276a\'\353\276.\2611?\373\362\311\277\251\2638\277=7J\277\200\347O?*d\345>4[\201?\t\'\024?\232@g\277\217\257\242\276\340\021|?\346\377\216>\326\2473\276$\021\362\275\330H\035\277\306\360\244?\\\274\017=\213I!\275\350\356L;\255\214\022?V\343\265\276\313@L?\375OH\2772\315\030?\341~\313<<_z\275\313\376\311\277\024C)>\376\017\357>k\334\312=\330\257\025?\270\233<=\266\312|>I\263O\276l\036J\2775d\273>\300I\234\276\233Z\032\277`\324\324>V\307\035<s\214L? \365\003\277\335\234\032\277:\0178\275\001\371\264\276\267\202\034\277F\205\003?\006-\021?\241\237&?\031\225\271?\365\253w>\035\241T\277\230qq\276\347\345\000?\370W\r\277\2014\033\277\323\361\352>\377\253\002\277T\212s>\302>\030>\325))\277\316\314\017\2765\213+?\324J`\276\023*/\276\271\215\007?\223\200\341>+\277!\277\260]\256=\366\374Y\275\201\010\203>\027\336\325\276h\337#\277S\031\255>\r`\023\275Z\266\362>\031\205\320>0\323\264\276\003\305A\277\345\222-?\342\340\227\276\224\324T\277\230\250\310\275\354\334\341\276\254\301\213<r\2450?\374\017\350=G\323\374\276E\325\247?\343m\213\277uj:\274Db\307\276QM\261>N\330\243\277 U\356\276\373\237\263\276\372?\210>\347\323\235?\373=\362\276\261g\213>\347\364F\275\035\323\353\276\003\032\272<<\364\317=\235\006+\277\240@\023\277\350\003P\275\230\212}>\264Y\302>\322\305\347\276\004\374\356\276\322\363\014\277\216t\360=\271r=?-QB\277\022\205Q\276_\302\331>\323\027\037\277Y\365!?\222\342\205?\221Px>\246R`>k\351\265\276\0303:\277\310_\272\276\210\250\037?\270\265\005>k\231\251\274\327F_>\250\252\363>\307NJ?\353\207u?\255u\003\276\212/n\276\356\352B\277\354\300\317\276\323C\332>\373\377\202\2763\233\t?\000\nr\277_\245X\276\241r\340\274w\2238>\251D\236\276e[]\276z\371\234\276\233Op\27724\032\277q\365\233\2757\004\255>\275\333\313=\277%G>\006\340\327\276\320\346\344\276\347{\314>R\3154?<\301\346>\220i~\275\227yI>\355\316\375>j\303\035\276\214\001\275>\020\006\312\276\247\274\220\276\261\334\337\276\277\250\010?V\030\207\275\235\030)\277X\2352\277\353\005!?W\330\013\276\355[\007\277\322+\263\276\353\374\203>d:\306\277x\254\256\273\373\265\234\276S\320\273\274\337PA\277\264\246\225>\306\322\207\275d\246\202?\366\247\336>\370\306==\022\343\301\276+\347\324>\037\300;\2776C\354\275\230\266\236>\360j\201?Uk\034\277\230Z/?on&\277\263*\365\275#\235\333\276\210\350\337=D\006\267\276\332\342\210\277\236iB\277\343oD?\263\305\026??\202\263\276\251c5\277M\204l\276\r\265\334>5:k>D\241h\277\312\342\002?\3170\204\275\277\215o>f\336\247<\026\307\263>\224\305\'\276\370\214S?{\224\020\2759\026\331\276\253\020j>\025 \000?\374\3367\276\016\\>?\324I\340=A\017(\277\n+1?\351\276\335\275\023\271 ?W\0024\276\212\247T\277\031@\177\275E\375\230\277\214\2713\277C\016n\277)\027\237\276jFY\277V\370\021?\316\362O?\352\0172\277\332e\225\275\000\2539\277\241\216\030\277\301\'\364>d8\010\276\231}\320\2746\025\320\276\262\325\231\276\221\307\310>Yy\024>\370h\352\276}\244\377>)\307\222?\376\034\206\277k+\244\275|\016\223?S\177\217\276\352\027\225\276\266,\207\276B\347\242\276\002\264\326\276\215\006\211\275sNA>(n\221\276\317\233\034>>\225\364>\366;\321\276-L\013?(e\341>\365\236\210\276\034f\274\276B\204\247>\337O\326>\014\302\326\276\302Y \277_g=?\\\205\016>3\370L\277r\367\031\277\345s\313>\373;\016>\017\204\250>\321\"\021\277\025\247\177>\347\205d>k\027Y\2754[\001\272\207\242\230\277\223\334\"?\212_E\277\377\375H\275\023\360\211\277\270z\223\277\203}\213\276\217[\037\277\213L\361\275\024\371\030\276\014:\365\274\307\003G\276qE\210?\316\376\024\276N\333\322\276\337\340\347\276\316;A?\232\304\211\277\031/\260\276w\254\036\277\365\376y>\310gu>\n\243\331\276\346\312)\277\223{\223\276w\357i?\350\022\330\273\206\212H\277\300\020\n?rf\203\277Q\240\337\276"
      }
    }
  }
}
node {
  name: "tinyLPR/mobile_net_v3_small/bottle_neck_1/block/pw_in/batch_normalization_3/ReadVariableOp/resource"
  op: "Const"
  attr {
    key: "dtype"
    value {
      type: DT_FLOAT
    }
  }
  attr {
    key: "value"
    value {
      tensor {
        dtype: DT_FLOAT
        tensor_shape {
          dim {
            size: 72
          }
        }
        tensor_content: "/i\332?CzC?\235\335\003?\222tN?\351\262L?\030\025\205?\342hN?!\207\301?\022w\240?|UA??\314c?\000]/?\306\373\361>k\026\326>jTJ?\214\353\226?\204\230L?:\321\254>\021\030\261?\324\031#@\262\263\260?\"\324\203?\374\316\241?\230>\302?\033\221.?x2\014?\254\026D?\307\360\023?y?\236?\321\334\223?\030|7?W\264=?\241\242\233?\215\373\336>t\315W?\023_|?qY\010?,i6?\265?N?\370\315\274?ACK?}\006s?\206\371\270?\367\264\255?\245\3318?\372m\350?T\375\214?~\342p?\313S\307?\000OK?C\370$?\365\007<?\360\017\034?i\202B?\330\371\274>\205\211\353>p\340\235?\265\242\223>\370\343=?k\313\303?\315(\\?\335\307d?\302\013\211?u2[?\246\261\277?\261\317\370?\254\244\204?J\310V?\326\031\317?x\241 @\026#z?\264`\230?"
      }
    }
  }
}
node {
  name: "tinyLPR/mobile_net_v3_small/bottle_neck_1/block/pw_in/batch_normalization_3/ReadVariableOp_1/resource"
  op: "Const"
  attr {
    key: "dtype"
    value {
      type: DT_FLOAT
    }
  }
  attr {
    key: "value"
    value {
      tensor {
        dtype: DT_FLOAT
        tensor_shape {
          dim {
            size: 72
          }
        }
        tensor_content: "\034d\241?j\263\321>\007\211\004?~u\020?\255\026\000?t]5?g\005\002?\3741\031\276c:X?\244\230\021?\321\352\024?\023k\366>\343\0302?\325RI?\037\006\005?\0107n?\315\234\220=*\nZ?\2476a?B<\020?|\377j?sU\022?\324\371g?\312\016\221?\234\275\t?\351\200\035?he\220>Qs\371>\220s(>?\334\264>\355\212S?*{\014?\357\377{?\003\275\346> \303\342>\'\254(>\2211\006?$\212\371>\241:\327>W\272\252\275\n<\244>n\276\300>\003\305Q>\314\377\224>\217\013<?y\2108>\231\2705\276\330He>\370dI\276%\232\254?\324x??\350U\333>\300)\315>Q\306\326>I\275W?\262d\233?\202:\202?\020\027\212?\262\361\345>\311\036\217>L\351\300>\307\221\016?n\1773>\240\003M?\357\220\267\276\254BA=_\274\360>\003\255\311>-:d?;\034\207>\347\231\246\276\032?\220>"
      }
    }
  }
}
node {
  name: "tinyLPR/mobile_net_v3_small/bottle_neck_1/block/pw_in/batch_normalization_3/FusedBatchNormV3/ReadVariableOp/resource"
  op: "Const"
  attr {
    key: "dtype"
    value {
      type: DT_FLOAT
    }
  }
  attr {
    key: "value"
    value {
      tensor {
        dtype: DT_FLOAT
        tensor_shape {
          dim {
            size: 72
          }
        }
        tensor_content: "v\007m\277\251)\233?\3376C\277\357@\001>\005\332\257?1\205\031\277N\371\207\277\004\331\241?\242\n\036>\346PA\277\t\337\207>\312\334V\277\3703\227?,\305\376>B\365B\277\232\2401?\324<\006\277\036\025\211>\005+\262\276y\200r\2752;\352>\272\214\237?P6\'>\332`\321>!\365\014?\347\343M\277\354G\034?\223\373\'?\310\003\223?\242\301\226\277f\216\231\277_\001\230?@1\204?\016\251Y>\230\271\325\275=0\032\275\351\265\360>\351\204\271\276\305\341\326\275\3626\252\276\277%\216?\035\300\347>v\204\365\276\230\325\262=@\365\234\275\371\3109\276e\313\201?\025\"\363\276\177#\310>\242\365\226\277\032B\231>\2600!?\006W\346>\005\343\020\276\225\004\010<.\377W=i\256\221\276\200\3051\277H\215}=\244\177\245\274@U(\276\214h\235>\332\325z\276\266\227d?*\345\210\275\004\r\244>\3516\240\2777\np?\032\214\034\277i\001\260\277l\353a?\215\031\231?"
      }
    }
  }
}
node {
  name: "tinyLPR/mobile_net_v3_small/bottle_neck_1/block/pw_in/batch_normalization_3/FusedBatchNormV3/ReadVariableOp_1/resource"
  op: "Const"
  attr {
    key: "dtype"
    value {
      type: DT_FLOAT
    }
  }
  attr {
    key: "value"
    value {
      tensor {
        dtype: DT_FLOAT
        tensor_shape {
          dim {
            size: 72
          }
        }
        tensor_content: "\350f\302@\241\251\274@W\336!A\306^\314@\263\"\006A\345M\241A?4a@.\007\231AL\311\022A\262 !A\017%\022A\036\334\306@]\322\213A\376HWA/\233\001A\365~\326@\3424\251@h\0069A\312FR@\304\262\327@\250\266\013A\300\277/@\316\337LA\340p\313@\204\265\373@\\\257\002A\234\374/A\200\262\366@\2600\021A \315\006A(\222yA\005\251\270A\315N-A4bPA\277G6A\210\325\037A\266\275\004A\2038&A\320C\211A\326y\220A ^?A.\021\237AMEP@\004\317\200@U\357\263@o\273\320@al\221A\021AXA7\200x@J\303\tA\341!\246@\007\266\010A\010\224\025A\315\"\020A\266\367\003A\374K9A\243\344zA\371\207RA\177b\246@\302\302\005A\td\216@0\005\211ATM\027A\303\204\002Aa\3416A\360\367\250@\251\227\246A\226\327\225A\276\333S@\207\310\215@%2\273A\252\025\336@"
      }
    }
  }
}
node {
  name: "tinyLPR/mobile_net_v3_small/bottle_neck_1/block/dw/depthwise_conv2d_1/depthwise/ReadVariableOp/resource"
  op: "Const"
  attr {
    key: "dtype"
    value {
      type: DT_FLOAT
    }
  }
  attr {
    key: "value"
    value {
      tensor {
        dtype: DT_FLOAT
        tensor_shape {
          dim {
            size: 3
          }
          dim {
            size: 3
          }
          dim {
            size: 72
          }
          dim {
            size: 1
          }
        }
        tensor_content: "*\246\341=]pU\276R\267\240\275\376\335R>\277+\341\276C\034\220\276\251\361w\2752\352\336\276\227m\020\277\006\365\237\276\252x\352>\0301!\276h\323\027=\363i\306\276\320\024\334>\253\2661>\271\373\350\276\261\216\006?]\357\'\276Z\340\032>\270\326a\275\001tS\276@\346\034>\302}_\275\020\265\257\276\332{\247\276\210\320\364=\205\274\320\275\2235?=\2669\377\276=B\212=QMu\276jD\210>d\274\313=6T\303>C\020\202\277\030X\361>\326l\255>)1\311\274~TN?S\247\223\276\254/\372>\311\344q\276x\021\311\275~\260\032\277\0017\340=\346E\201>\261\243\345\2754\026d\276 \334B\276\356\021\204\273&\237\235\275\362\372\236<\211\210s\276\360u\342\276PO\214>\006E&\277\223\210e>\030J4\276\373,\022=\245z\206<@\357\001?s\031\325> `\377\274\nk;>\346o\227>\0300\242>\036[D>\200\0361\275\247\376%?\021C\230\276\250\207\335=S\350\247=\037\307\231\275\340!$\275;G\002>\225O\257\276\310\302\345>?\236\214=\262S\203?\277{\202\276A\"\360\276\375\314\016?=e\325\276\323\247\367>,\234\002?\233\262\342=\007\027\023>\306G=\276\r_O\276\246Mp\277\243`\226>\247\241\336\276\"\232!?\273vB\276\343\341\013?\250\320\327<\253\321\035?fN\035=*\216\321>\230\322j?\367\014H\276\263\006w\275\252e\023\276\314\2544\275\336N\272>ET\342>\254\026\317\276D:\020\277j\317\315\275 \276\224>\313*\374=\316[\222\277S9\001\277!\235\270\2763\326\202\274\274\330\356>\3707\254\276\320\235\007?g\230\200\276\231\334*\276\216\221\\?\312`\255<\206\035\305>\261V\354\274\231l\262<\325\304?\276\327\327%\277\307\265\221\276C\014\n>\347J\024?\003\231(>\237yv\276\t\213\240\276\013\321\014?\212\001\316\275UK\222>I9K\275)\273\220\276c\350Y\277\017HX>\242j,?P\306\300<\360\230\203\275\246+\221\276\221\324$\276|\247K>\351.q\276p\260\r>\3253)=DsA\274\207\373\010\276\316ZB<\325\333W>1\234B\276\214\002D=\"/\266;|\241\271\276AN\276\275\257\346C\276\030\216\'=\335\203t?\3674\211=\2348\206\276\321\027\037\2758*\211\276\360Z>\277REE\276\357\256\013\273\345\333\242\276?\023\231\276\373\033U\276\260P\315>\263\371\251>.@\030?\021E&\277\242\272\321\276\353\345\303>\002\261\354<\327\355\207=\206\336\346>\222\3769\276Z-\246>\301\322\262<\363VE>\337\217\n\277\036a\005\276\006\264\001\277\311z{=\304\303\026\276\021\363\021>\n\370\320>\'n\224=\377\234_\276s\217\326=t\014\303=\207\253\336={\310\235\275\\\206\217=\"\253\316>\307\207\235\276\'/\272\276i\321\204\276\373\340\025\276%\025\205\276\337I$\277\256w\347\276zAz>\303\300\277\2766u)\275+F\217\2768\336\n\277\342\353\004\27666\330=?\251\357>\375!}=w\306\210=\333\323\326\276Jq\256\275\227\374\363>\270\022\217=\375hD\277\241o\204?1%\237=1\327\037?\235\326\007\277|\371\366>\030\320\004\277\201\303\006?\223\244\253>\254\315K\276Lz\213\276o\353\364\276\222(\030>t\036{>\027\305V?i\022\246>}\367\234\275\312|l\276\316\356O\276\353\204\253<\231\314V\276\302\361\212?\007s.\277\243\260\200\276\351}\233\277\010;\210\275x\326\265>\017\023\301?\310\2157\276Y\353!\277\303\232\224\276\'\253^\276u\261K?\241R\236\2755\335\240=c!5>(\320\346>\247\351\375\276}\372l\276\033\351\026>\200\326\364?m\332\030=\220\034\362>\177\302\032\276_\307>>-\311\022\274\306\265%?\232:\224\276\270\3040\277\271\206h\275}\013\306\276Q\363\330=\202K??1\034\211\276q\036\247>9\021\202?E\262\030\276H+\277>\013\027\225\276\206\2251?\340_\206>\315\226B?\377X\030\276\210s:\276x\225\010?\337\366\352\276\336p\013\277\343\323O?\310\362w?\032?\330?,7m?\014\\s?YG6?De$\277\231q2?\022\351\226\276\303\027\030\277\264\366\256\276\334l??\300\374\251\276J\0012?\253\377P?\353\n@?\3766i?\274\026?=\036dp\276\342\026K\276;\224M\277d\026\213?\204ZN\2758iS\277yV4\277\253\276[?R.\302\276\002\260\'?9l\232>\226Vj\275\204\272\315\276\344\347u\276\n_\033=N\274\016\277\363ht\277\261v.\276\034\346\305\2750@/\277\336E\211\277N\220\023\277\334zg>\361\035\000\277\366\244z?\\\206\364\276\333\216\316>\302\214v>\245\222T\277\366\342?\277\336r\304\277i\320\365>\256\357>\277y\202\252\276\276Q\210?\236\3376?Z\365]>o\213\020?/-1>\275\031K\276\345\272\036?\206e\032\277\265\233\254\276M\033\340\276\213\250\010?\307>\016\277HI:?\227\261\216\277\320\034\351\275\307\265\217\275G\033\017?\375\377\211=\034\223\323<\027Br?\202*\025\277\225S\253>=Q\255\275\034\353\017\276$\354\226>\035\025~=\241\221\264\276Tk\'\275\307cs\276\002E\007?\005\273U\276\221\213\240\276\030o\322\276\317\327\225\275\327\372\212>\017\3233\277oEb>\017A\024\275\357\025\"?B\226\212\2760+\305>\345\010\322\275\360z\265>\251\177\024?\220\273\210>\260\322\177>(H\002>v\236F>\312E\026\276\260\016_>\311\322\267>/Mw\277NK\226\275\240\222\245>\014\016\262\275\342jx\275P\310,?^@?\276\223\277\006\277&s:<\234q\037\276\023M7>\227\205T>\372$\374>\360\376\346\276j\000\r\275\345\021\326=\242\303\372\275s\000i;!\021\377\276\"\313\366>\245\306Y\276r!+?\"\223\332\275\366\266E?\354F\033\276\004?\303<\355/\304\276\366D\223\276\265J\240\277=F+=\027\315a>\335\240\231\276$\375\035?\201j\272\275\327\355\n>\273\353\036\277\007\340O\276;\204\021\277\017\032\266\276\312\345\276>\272\027\203\276\231\363\222\275dF\003<\0014\006\276z\025_\276\335\t\247>\255m\020\276\364\215\214\276\023i\273<\273\021\362>\331\256\300\276\327\2016>\347+\301=\250\206\005?J\200\257\275\035\n\332\276$\037\222\276<\355\222\276\ngw\276d\325\222=\017j\210>\226\203O\275\r\235;\275[\001\006<\000L\367\275s\013\223\276\036n\353\276\257\257\261>=\004\241>`\267y\276\227J\315\276\372\020\312>\247\002W=\2175\372\274aJ\235=\277\374\270\276\240[\310>\352=\222\275M\247\032\276\204\303\242>\231\265\032\276\224O\200>4\216\246=\370\203)\275\360\3621\276\312\032<\276\275\304\346=\370\361\375\275\2742\276>n\2425=D4\033<\177\265R<\272\361\007\277r\010\203>@x\250\276\236\266\002\277\243vn>\006\322\022>K>\032?\032\335\270\276\024\232\"\274\267\213\326>\270\366\230\275\014jS=\247=\276\276\306\037y\273\373\262\304\276\017V7>\3075&\276,\365\025=\357\352\221=\177\3408\277+\334\203\276\007F\342>\271\271\251\2761L\304\275\355\375\307>O\007\301>\200;2=\366]\033\274\226\233\341\275[\027/\276\323{\254>\374\237\036\277z\371\002=\020B\345\276\335\217\270\276\305f\321>9\306V>\204k\251>\307\317\343\276+\035\017>n\224\017\277!#\004?m\250\270>q\006\016?[<\334\275\334^a\277G\225h=kH\t\276\327^\'\276\010\277y>\272\232\273=\373\375\010\277\345c\260\276\262.\222\275\\\351\n\277e\334\027>\256p\321\275\n\003\266\274N\350\202=g\002)\2760\2405>\000\202\224>(F9>A\203P=\303\036\025?\2423\375\276+\273Y\276\243\006!\277\005\260c\276\221x\257>\240/\322\276on9\277\314\036\327\276-\032\030\275_\203\312=\355\262\344=\246\213\023\276k/\023?\355&Y\276\252\326\000?\355\273\036\277\006\010\276\276\310\236\232>\300\036\177\2767t\371\276\353+\212>\267\331!\277\261\355\246\275x\345\336>\'\024(\277\210\327]\276<\340e>F\355\304>k\037\201\276\2343\257\275\225\302K\276\267\\\332>\036G!\272>\317\004\276\025\035\355<\246\023\027\275<\225\353\274\266\343\024\275U\030\002>Y<5\276\236\000\203\276\233\204\266>\013N\323>\257|!\275\316\246\272=\325R\204>\366\014+>\235\207\222=U\014\250\276\354Z\n\275\004\315\277>,|\337;\356}\341\275\367\323\325\275\304\325\226\276B\363\214\274S\317\317\276V>\021\275\253\001U>\347K\236=?x,>\310L\336>Pp,>l\210\317>: \271>\3463\354\274\250Yw\2752\314\375\276u\037+=\004\021\026=\310\373R=\333Zj\273m\025\361\275%\032\271\275 wQ\276\330\"\013>\313b\313\275<w\271;\205p\301>\360\032\247\276H\374\321\276\231\332\324<(\270\\=0\"o6\005\320\'?\307\312*\276v\\><dU\026>\332k\265\274\332\221\313>\240`X\276pF\237>pu\277\276V\314c>1\">\276=\237\242>}\341\232>\030\302\r\276Z\207\013>\340\250\235\275"
      }
    }
  }
}
node {
  name: "tinyLPR/mobile_net_v3_small/bottle_neck_1/block/dw/batch_normalization_4/ReadVariableOp/resource"
  op: "Const"
  attr {
    key: "dtype"
    value {
      type: DT_FLOAT
    }
  }
  attr {
    key: "value"
    value {
      tensor {
        dtype: DT_FLOAT
        tensor_shape {
          dim {
            size: 72
          }
        }
        tensor_content: "\004\321\211?R\214\205?\374\256\255?Av\231?\214\256\225?A\230q?\035\027y?\207\333\201?/\200\236?[3\247?<p\212?\235\003\241?\t>\212?\033\217\241?\006e\225?\211\234\245?\264\350j?C\177\230?\211\n\200?\240[\177?\023\226\221?\r1\231?Ia\232?o\220y?g/l?\031\307v?\373\332i?\230\210v?shy?Tl\201?\036\265\234?\300\200\351?\332\203\247?d2\234?\235\366\265?\352K7?\214\256d?\224\247\244?\206\207\257?\331\247\220?\334\356q?\305#)?\024\236k?\rN\236?\367d\204?*%M?k\023Z?\345\177\027?\221q;?\311\030j?wN\260?N\235\267?g\335\216?\320Uw?\273Mp?b\t\210?U\341\223?P\007\300?!\230\223?\225\255\260?\002\202\210?\263\372\272?\003|f?\370\315\225?=zr?p\201\\?\245,\254?\277\223\233?\r\210J?\211\\\'?q\t??\351\267\321?"
      }
    }
  }
}
node {
  name: "tinyLPR/mobile_net_v3_small/bottle_neck_1/block/dw/batch_normalization_4/ReadVariableOp_1/resource"
  op: "Const"
  attr {
    key: "dtype"
    value {
      type: DT_FLOAT
    }
  }
  attr {
    key: "value"
    value {
      tensor {
        dtype: DT_FLOAT
        tensor_shape {
          dim {
            size: 72
          }
        }
        tensor_content: "\350[\324=\235\267\366>\\5Q?\032\336\265>\257\240\014>\3164\351>\343\361z<T\256:>y\236\326=f\004\373>Q;u?\221\311%\276mm\261;0)6\276\236%\035\276Y\224\234=\253D\301=\313\344\227>\247\301\224\276\'L4<\247\344\225=\252\006\220\2759\244\334=\003_R>[\347\335=\014\303\031\276\262\034T\276%:I?\006\236o\276c\306\365>\361hk?=\310\326<n\211\245?\'\322\027?9\022v\275\336\304o?\352[\317\274\242\035\337>}\025\r?\\3k?@h%?\250\207\220?P\3638<\336\3051=\334\310\316=\022\301!>::H?\037\240!?=n\254?d\270\203?V\"`\275+\271\202\276{\354\225>\206h\204\276\n\373\336=\221\r\332=nL\022?\325\0164?\017\"\363:-H\020>f\334\335>\221\211 \274\260fA?\335\202\005?l)\350>\312\224\\?\205K\026\276\231!{?\317Hr\275#$l>\325\326B?O\245i="
      }
    }
  }
}
node {
  name: "tinyLPR/mobile_net_v3_small/bottle_neck_1/block/dw/batch_normalization_4/FusedBatchNormV3/ReadVariableOp/resource"
  op: "Const"
  attr {
    key: "dtype"
    value {
      type: DT_FLOAT
    }
  }
  attr {
    key: "value"
    value {
      tensor {
        dtype: DT_FLOAT
        tensor_shape {
          dim {
            size: 72
          }
        }
        tensor_content: "\270\332\366>6\363^=.( ?\026\027\244?\262!\\?\302y\022<\330\264\021\276O\267\n?N\026\307\276\225\3520\2772\255\210>\371\247\236\276\350\345l=\314\315\005?q\350\211?K&\031\276\240\030\204=)\265D?\262\026\376;\224Jm>3:\352\276T\026u?F\362\030>\357\251\350\276C\200\240\277\367\221\230>\322\211\207>\321\240P>\342\377\364>\373>|\277G\234\316>\234\250\236\277*\355\243?\351y\037>\355\017\303\276n\'\013\277\177\375\t?\235<\277\275\355[\337\276O\252\211\274-\2416\276V\243\265\275\321\017k=\214\003/\276\215!\003\277\010OX?\237\220_\276\033\251h\275}\352N\277n>\244>1B\312\276\025O\261\276\267K\'?\323\356\216\276\014g\234=\306\033\037>\324\224\332>D[\303>\220WG>\023\236\213\277T\325\036>\272\002\364\275\026\236\261>R\207\n\277\2250\247>\313\263R\277u\374$\276*U\364\276\321?\004\277o\240\202?\274C\005\275\344\327/>"
      }
    }
  }
}
node {
  name: "tinyLPR/mobile_net_v3_small/bottle_neck_1/block/dw/batch_normalization_4/FusedBatchNormV3/ReadVariableOp_1/resource"
  op: "Const"
  attr {
    key: "dtype"
    value {
      type: DT_FLOAT
    }
  }
  attr {
    key: "value"
    value {
      tensor {
        dtype: DT_FLOAT
        tensor_shape {
          dim {
            size: 72
          }
        }
        tensor_content: "\033\360c@%#L>\226\221\t?\013-T?]\007#?z\302\310>oP\336>\366\246\236>q\r\216?\311\314v?%tF?\261b\305>x\341\023>L\233\360=\231s\031?D\316\367?G\211$?\210*\213>e\216\022@\273\351<@\351\234\270?\275\031\367?H\243\254?!\361\253?@1\025?9\337\226>\037]O>\031}\203>\2202\366>\251\370\250?\204n\223>7s\242?+\n]@\327\020$>r\375$?;\315\322>\254\315D>\230\247\000?\"\004S?\354\373\312>\242\242\022?N^7>\367\376e?M\345x?=\354\340>]\202\276@\245q\231>i\213W=\261\245+?mL??\276@w?\236U\006?\274y\307>\034aw>\343p\010>e,e=~M\005@\237\3559>Tot?\371s\203@\330\253B?\211\353\356>\255 \004?\320:\253?{f\016?\001)\013@M\r\005?\005\023_?\375E_?\305\305y@\006WI=Me\211?"
      }
    }
  }
}
node {
  name: "tinyLPR/mobile_net_v3_small/bottle_neck_1/block/pw_out/conv2d_3/Conv2D/ReadVariableOp/resource"
  op: "Const"
  attr {
    key: "dtype"
    value {
      type: DT_FLOAT
    }
  }
  attr {
    key: "value"
    value {
      tensor {
        dtype: DT_FLOAT
        tensor_shape {
          dim {
            size: 1
          }
          dim {
            size: 1
          }
          dim {
            size: 72
          }
          dim {
            size: 24
          }
        }
        tensor_content: "\357\301`>u:2\276\2301\020\277\004\253\236\276\347\327A\276q\023\n?\305\341T\277\245S\315\276\364\254.?\3225\256\276uF&\276\037\232\252>7d\246=\310\275\311<8\376J?c\344\275<T4\324\276\334y >\214\375,\276y\250\236\276H\305a\277\315\374\311\275Y\335??\317\245\244\276=\262/=\377i\276><i\222\276l\312J>\356\352\237\276/\025\006\277iG#\275\222\320\355>\000n\263=\013\276@?\230!s\276E\035%>\033\257\321>\361\276\242\276v\274\257\274\330\372\336>\307\261R>5\003\275=]\204\254=\222\021@\276\243\371m>J}E\277\030\006\245>\350\216\335>>\322m>C\t\374=\254\235\376\275\032\354\265>\r\305\245\275\r\345\242\276-V\222=\3465\366<\'\343\366\274\260&D\277\310p(>@\312\212\275\014\343\037\276\325\250\202?\220Q(>O\022O>r\314\310\276\312\t\345\275\364\025\034?\203\275\222=\336b\372\276\001\257J>O\3525=\n\320\\>R\217\\\276\330D9>\3239\205>\267\210\017?\374\221m=6\272\277\276\3651\222>\267\350V\277\332\211\375\276b\327:\276U\355\305\276|\333\026>\014p9\276E\374\000>\372\231n?d\2765\277;\3632>\3159y\277\030`&\276\254\231\275\276\003\301\236>!\375\367\275\326\226\261\273\024\200\203\275\372\006\206\276\353E\212>\352)\016\2769\264\031>\026\267\252>;PD\2769\034\205?i\246\\>\010\037\312=\024`\330\276u\267>\277\362_\\\2775R1\277\237\260\205\275\243\367\335\275\203\307}\276,\033\312\275\364c\273\276B\037\005?\242,\331>\256Q\274\276N(\255>bI\214>\270e\024\277\355\337\276>\236\310\245\276Q\270_\276u\253\332=\207\'\200?\316cl\277\360s\367\276\213\262\307\275^_\361=\300\201\346>\017\037\357<S\342\207<.}%\2761?\t\276P}\252=\204\270\263\275\357\326\034\275\371\212-?\227\370\323>.!6?&\030m\276s\3069\277h\230[\277\330\376\366\275\333H1\276\200gq>\235\367\333>\234\371\301\276\365\241H\277\301\276\261\276E\026r\276\374\177\252>\227\212\344\276\324\202\3529\342\002\025?nt\334>)\354\340>\330\264\274\276\327bA>e \016>\203\265\024\277\321\306\214\276Xc\315\275wH\027\2765\256\007?\273\022A\277\334\206\314;4\376\247\276\205\034\342\275\\I\227\276\2328\027\277E\347\222\275\304\301\355\276\304l\237>Jh\202\276\271\273\375=\201\230P\276H\301\031\274UT\370\275\2368\246>\004\357\252>\373\305\276\276\321w\240\276B!\310=\346\020\326>\375M\311\275\026\2517\277\310\331\'\275\0342D\276.|\034?\334\210C\276.&]\277Y\311(\273\3665\336\275\222\357\247\276+&%\277S\314X?\233\003\321\2760\326\021>\260\367,\277\355\366\222>\343\016\214\276>n\024?I.9>\236^\226\277w\000\021\276\307N#\275o\'\202\275X(\365\275\304\330Z>\375q\245\276Gp\332>;)I>\010\356\305>vY\275\275mw\317\276A8`\276\362\310\"\277\250=w\277\354\377\256\276\004\314\247\276\251\177\316>_\335\007\276!D\266\276B\273[>a\035\253>\336\261\202\276\"\021%?\240\216\'\276\261,\215>\220\370\033\277E\003b>f\000*?\354t\247\276\257Je\275~\307\211>E\305\353=\355A\272>3\335\206\276h\344\177<Jwm=n\367\275>,@\216\276~\022\017\276\020\253\315\276;Q\016\277pHH?6\256\262>\233\306\200?\r\346>\277=\356\217\275ZF\271<\036:\023>\022\352\216\276A\307\332\276ww\037\276\365\310\031?\2469\217\276\301\233\232>\270e7\277a \305\276Bk\003==_J?\004\027\355>\321#\301\276\333$l\277\007\026i?&\310{\277\324\300\266=3\032L\276\004\310c\276}\007N>Tr\200\274\347\271X\276\220\033\332>\3320`\277\037{\264=E\301\342\276\324| ?\264\252\'\277\257!r\276\302\021F\277\215\257\004\277\023X\013\276\021\344\251>\247\033c\274\245\323\253=N[\231>\255\230\301=\221\007N>EV\317>\315Sc\276\274t\247>\270 x=I*\267\2768#J\2771\007\321\276\223\216\325>\273(H\276\324b\'\276F\210\204\276\221\2441\276\225\353>\277EN\031=W\372\254\276\260\222@\277\327\317\211\276UzK?\364\272\035\277\352x\322>\246\312\036\275\363\265\006\276\340\3629\277\017\334\243\276\261\314t\276\266\351H?\324z\027\277\266Q}>\267\014\242\275>P\r\276\346\373\315>\370\n\330\275\226\267{\276g\266\271=\272\316p\276\304\303 >\307\300\017\277\006\372\253>\366S7?\223\034\321\276\225Wl\2751\251\007><\365r>\331\2522?H+\033=a\256\264\276L\247\246?\253H\240\275\236\204\002\275e6\361\275n3\032\276\203\210\370\275\363\252\307=\025G\374\273N\203\r\277\325:\270>2g\240\277h_n\276\3359=\277\253\240\375\275V\274\215\276\204\314\337=C@\243>\220\275Q\276\220\223\215>\233i\023\277l\370\270\276F\216\014>S\242\021\277H\215\310=W\351\003\276\007\316n\276\230\217\215\277\365\343(\2765\007\275\275\376D\367\275\003\027\342\276@\311\177\276;P\010\274\271N\250\276N\204\006?\265\201!\275\014\366)\275(\327\346\276+\271k>\210\343\244\276\nx\346\276\2635\312>\036\352\264\276\032\361\t\276\376\264\210\275+i+?#\2254?z>\375\276C\250\231>\253F\026\276\355\034\346\276O\031X>n\265\262\275)\374\277>rd\333<\252\355\224>\t\360\267=\257,M>G\032\266<7)\324\275%\216\r?~,\204>\264\246Y\275\221\003\254\276p\363\357\275\247\313\027\277kr\177\277\241%\">\004\231/?F\372\243>#\346\014?\350K\235\275rX\215\2767Y \276+^S>\362D\256\276JXZ\277K\217\260\276\027ZH\277\360\221\245>\',\006?I\352K\277 \236\000?LJ\254<l\215\024?\223R\n\273\245?%>\'n\017\277\234\'\216\276#M\355\275K}0> ]\361=Z\022H>\0337\250>\370.\245\276^\265\374\275\227f\013\277\247j\205\276\264\251\372\275O\3477?\027:\\\277\212q\'?\361\352\036\277x\376L\276WF\324>\225dO\276\324\364\023>S\323\300\275t\r\221\276u\002\307>Z0*\277\325\324\326>\215\240\220\272\004\002r\276P\227\247>\360\3138?pr\207=j\362-=s \224\276\244\345==\362\270\001<\245\373\311\276?(\236>>\237\007\277(\263\303\276\316\034\343\274\322\364\316\273\253v\310\274Wg\237>\217A\273>e\206\353>\227y[\277YR4\276\253=\266>\313<\325>\270\010s\276E\253\302\276\254\230 \2777\355\267\276\r\322\352>{\346\305\276\271\276\010\276\036!\255\275qT\276>\300e\307>\246Q\212\276\332\263\205\274\305{X>\257t\254>\007\324a=\007\277{\276T\314_>MFe>\240\227\033?\344\306\027\277\3560\024>-}L?\003d\030?\230\233\236=\307\256E\273z\036\334\276\261\006\260\273\\\266\246\2762`\007\277\nz&?eQ9>\225\316\325\2766dP\276\274\314\310\275\367\350\021\277\312\277\344\276\344\253A=\370k\307=\343\333\'?7\005\357\276@1B\277(\324-?K\310\274\276\230\355\310\275\327\214\307>\344\242\313>\221\325\n\277\022\325p>\202\3351\276\316\226\254\274V\226\271>\023\241`=\027\021\247\275\263\346*\275\210Q\246>\337\230\004\275\031\346\270\276_\300\371\275\317\\\021?\036\213\276\276\017\336w\276\r\357\354>A/\300\276$\\\206\276\366\360\224>\350\216\250\274\225\347\251>_\247\017\277\377\275\325\276z$\020\277\000Yf>{\303\353\275r[G>\261d\275=\'\t\207\277\255 \260>\356=\262\276\353\215\334\275\370\345g>e\313,\276O[\003?\275^)?\333V\240=\377\206\002\277\237\177\003\277\304t\346=\245\371\243\274G\377\004\277\360\301\251>^\307\204\275h\2739\277f\237~?\354C\221=;\243I\276\'\350\302>\236\260\275>,\330\035\276TI,=\330\310\263;\230\2426\275\332!\347\275\303XK?Af=\276\220*\210\276\334\022\"?\213|\007>nSr\276d\326\212=\246\2254\276\266\225W\2772\0266=\016\242\177\275,\025\260\276\252\256\232\276\261\027\310>\320r@>\316\031\343\275\231\250R>\351\342A?O\372!>\312\031p?\216\270\006\277\314\323w=d\350\373<\312\031\211\276\377\030 \277\223\211\215>x\003\253=A\337a=?f\234\276\362\037\346\274\251\350P\276u\2245\276T\2363\277a\304`>\357!\322\276\221\340\013\277\353H\024>\371\214\264>\245CL>\376\356\313>{8\303\275\203\214\326\276C\335\242>\374\327\305>\253\036c>\275\234\241=Om~=\246\326\304>&\303\300=p\263\205=d\261\267>i\216\210\277\321\257(>qZ\257=\037\375u\2768\263\304>\213\320\215>6Y\224\276\203S\033=\254oN\277}\013\3267nw\262=;\342\356\273!u(=-8K\276\252\370\274>\301\014i\276\036.,\277\325\303\034\277\220\324\030\277\323$\340\276X3+\275\037N?>\326\327\376>H\361\346>\307\031\221>\345IL\277J?\005>\243W\232\276\261\017\016\276\'d\356=K@\270>b\002(?~\266\037\276\024\300\337\276\212\367\320\276G\223\251>\003yG>\002\310\323>xzd\276\340m\234\276\211\n\212?\3237\266\275\206\032\306\276\"\305\340>\343_\334\276{\371\251\276;;W\277\231U_?m\000\340=Y!8\277\r\360?>hJ\n\277L\031\376>\312\261\202>\345\207\212\276w\324,=z\366\257\276\306\347\003\277\262\356\031\276\245\027\204=\323\016W\277\202\366\224>\rX<\276\344ky\276\216\261\330\275\201\013v\274\317\237\365\276\220\2771\277J[\201>\025\241Z\276\201>!?wD\014\276\0212&\276\221\224\324\275L\344]\276\222\272\364\276\230\022\003?%\266\251=n\025\205?=\357\372>\230\236P\2766\023\230>\253\271*\274\316M\310\276\255_G=c\r@\276\327E\327>\202\365\247=O\310\365\276AMK>\355e\305\276\327\034\335>8\275%?\302\232\006?jO\327>\264R,>\260y-?\2652m?\006\2726>,-@\277#\361N?l\3400>\253\364\213=F\263\200>\"|\347>\277\341\275\276\330\302\203>\253?\305\276d\031\010\276\326\225\004\277\200\367\377\276\310\264\354\276\031GO\277Q\310\253=\374\256\243\2760\315v\277\377Q\203\276\256\335?\277W\2555\276fQ3>,\256\271\276\276F\017?\217\234H\276k\224\252\274u\004 ?S\236\036?rT\365\275Q\n\240\276\016g\316\276\037\242\\\277\202qe\276(\242\262\276j`\336\276\340\301+\277Z\2146\277G\035\252\276a\345D\277\010\243B\277Gg\n?\010l\235\276\024\340\034\277 \026\222>\357\000C=b\350\217\276\261\327\017\275N\340\216\276\0135\253>\213de\277\024\277\200\276\236\322x\274|\312\n>^\274\362>\2279\251\277}\024\002>f\251\013>\0163\362>\013\tW?\332\210\271\275\367\265\331\276\226\2763>S\n\205\275[\316/\277g\266\031?5\356+?os\013\277D\314\017\276\006\307\004?\020\261Y\277\250\222w>q\332\020?\325\371\233>\363\375*\276\256\304\216?2\267\367\273\2125f\276=\034\343=\356\257\254\276\345\217\333\275\266|\333\276\n\356\262\276\nA >\370\231\305=5\311B?F\207W\275\340\266\363\275\341\247f>\022\336I\276\311$\016\277\371G\216?K\277o\273\224&\226>\036\314(\277\324\245{=\035<\262>\231\216\360>}\224O?\235\357\335>k\016\343>z\334\262=\337\016\350>\203\2514?\022\010\r>~x\265\276\253\252\371\276\235\245\300\276\366\303\004?\304\246\336>~\246\355\276zu\317\276^\330\341>\306w\317\276\364\270=?K\230\204\275\2573\236>\277\312(>\254>\253<\340\260\251\276\304\005\r\276\217|\332>\002L\261\274v\366\215>x\005N>\2113B=\352\240\350;\264\253\335\276\021d1?\300|\331;\364/)?\370\004<=A\210 \277\237\375y>\236h\222=8(\003\276\010\327C?\3330#\276\277+@\275\031g\351\276\2768\033\277\013\203\237=\350\017\375>\216t.?\203\214\n\277\335]\352\276WBE>&\007T\275\327\322\017\277\316\361\220\275\212\305%?O\n\026<\365\324R?\006]y>\350\255\256\276<\000I\276\224\357_>o\270\354\276\214xT>\267\344\257\274G\3115\275\275\312\311\275\021k\235=U\325\203\276\276#\327>\300%\245\275\250\263\317=J\014t\277\327\3546\277\200\024\013>/\001\210\276x\3374=\215e\215\277\243\2543\276#\322\265>\353\375\t>\256\324\371\274\n\200\036?5R\021?6\241/?[\321\010\277\377\034\273\276\026\014\010\277\364NH\276\264iS>\372\023\270>\335\020->I\3751>\006\363\t\277\314\256p\277?x\345>D\274[\277\254S\371=\215\262\204>F\256\211=\035x\344>\325\325\222>mK;\277\031\250 ?c\366\264=\344D\330\275\233|\002\277\030\212k\277\2418\232>\223RR>\253L:\277\n\372\n\277\320\272\026\277}5\032?\336\'\253>\226.\272=3\307\244>\342\207\206>S\311\030\277u\237\305\276\335\317\266\276\272\301\t\277\254 ;\277G^4?\362\215$?\024\005H\276\350\306q?\317\324-\277\2715\376<k\300\355\276\367\210l\276\356M\351=\271\323\271>t:\r\277\266\352?\276\377~\'\275RwE?\363NA;\351p/\2779\007C\274\n/\031\277d\222A>\345\255V<\305S[\276\331\323r\275\250\026\036?\366v-\276 2u>\363\375\330\276\036\226\374\275\030Gi\277\356\017\342>\211\241\227>y\251\265=a\372d>Mv\374>\243\311^>\325{M>[_\370:\266\221\355\275\212D\030>\261U\010\2776=\332\276\036\'\021\277G\275\371\276m\006\025\277\3137\026\277|\"\025?\371\263\255\276\220*\351>\304\362\r\276o\003\366\2744\213\003?\032\005P?\241ML\276\371\035\241\276\265\367\206>+\r\352\276\255g\377\2761n?<\325%\253\276\320\246\001>\000\243\030>\303X\003\275+\313\033?@\360\320\276\017$\322\275\325\260!>q\362\337>(\200@?\275^\014\277\247x\371\276D\263\306\276B\366\036?%\255\330\276\245\032\226<\206\247\377\274\251p\354\274\274\363\326>\177(\235\274\301\275H\275\212\225+>\230O\274=\014\205\241>\206t\320\276\003c\035?;\320&\276\271\300\223\276;z\032\276\0304\014\277\0261\036\277\225\240\242\274Xs\022\276\261&\n?t\023K>\244\240\306>2\"\377>Bj\r?\210\016(\277\235\235\212=rgV\277\370\201\206>\035\340\240\275\221w\025\276\256\206\347>\304U*>h\324\276>@c\336>J\263\342>\201\2400\275\321\221v\276\025\246\023>^\031\341\276\243\252K\273\334#\n\277\312\377\375>+\313\377\2763\336\257\276\037\367\262>\\\033\364>\230W=?\307\312\007>A6\233\274\363\241l\275\374\230\334=\305\236\001?9\275O\277\001IJ?}\"\257\274\363\014\311>{\242\236\276\037\217r=\250g`\277\247.\007?\021\031\210>O\\\261>\212\223\031\276\344\230\300\276*4\353>\'\231\201\276Y\324\226\276\025\rI>l.\302=s<\r?\253\233\020\275`\335\201\275u\254r\276\317K#\275\206\254\307\276e\277\354\275\264.\236>E\350(\276\226\306\201\276\240\267-\276%\212\254\276\332\010\'?\274\207\310>{\231\252;\271H6\277\347\210\006?\276Z\250>=\277G\277\302\201\220\276\217\265\313>\271\227\n?\221\320\207=\177\315v>\"\207\177\276\001\217\246\276\005|*\277P\316\321\275x\310\202>\346\317\330\2766\200\034\277\001\034\205\277\274\303\020\277\357\355\252\276]\253\010\277\001x\326\276d\265f\277H\226\027\276\332~\034>}]\021?\276,\033>\030\203\343>\357\220\037>\352\331\230=\313\373%?\344\266\344>7\220t\276\317\2242>\234\021\267\276\230\323\020?\224\033$>\317\337\226\275\340]\242\2760\200\234>`Hn\276\177\r$=\tj\246\276B\350\306\276\217l\200\277c\346\177=6\246\\\2777\372\257>\373TC?\304\003\350=\236VR\276\341\346\323\275\037u@>\264\341:=\225\263\205=\232f\265=r\362C\277\244j\337\275\361\207\005?\244D\220\276a\304T>h\2342?\014\235\227\276\243\266)\275FP\301=Q\331\034\276\305r\261\275\227\332\035>\210\177R=>DD\275D<\210=o9\034?\022\300)?\3621#\276\346\351\237\274\343H\372>\302Z\177\277\023\361\235\275[\023-\276\305\017\'>\200\304\341\276[Mo?\036o\345>#\005=>`\033\215>F\304\000>\267:\004\276\3633S\275\333\356k>\313\177\227\275:\332\027?\275\3013> \313\014\277B\355z>8\322\246>fC$\277T:\006\276&\215\t\276W\302\370>\016\027\277\275\036&3\277\232\205\002>\0361\031\276\205\302\326>M\t\254\276\373\021\'\277\026\276\366>X<\304\276IV\255>\364HK\2762up\276f\307&>\277a\245>\277Wr>\262\270,\277df\000\276\231\305k?\234\007\234>i\022\376\276\307F\r?\222\007\\?\254\266\'\275\rC\250?\236a\226>\310+\313>u\251\332\276\\T\247=T\006\004>\377#\324\276\326.\205\276\204\024\245>$\212\n\277\t\244\343\276\252\277\351>\3011\036\2771@?\277\243\251\271=\335:\033>\245_\353>\3136\r?&c6\276\226\227]\277\257gV>\371_\'\276\330X\000\277<\303%\277\375c\205\277\276\004\206>\220\345\217>\303\323\350=o9*\276\347\001*=q\"\214?R:\370>|\350Q\276\351h->\326\225+?\273\377#?\246B\345\275\221\200\275\276\331AN>F-\006?\256\"\217\2744e\260>\313\233\330\276\363\246\245>\027\255\301<\226\0227>!:\375\276\366\350\372\276`\267\037>\r\341W?\036\006\245>1\362\375\276\315[\241\276\177\302\024>\245\253\000>\317\316+?:\200\216\276\273\237\006>B\313,>\003H\366\276U\261\021\277+A\025=v\372\234=\323\207\206\276\003\314\372\276\357\204A\277f\362:\277\300\0202\276\266\315\001?\330;4=\025\321\253>\321\224\276\276\263\240E\276\332\336\221>\351\251\225\276\247e@\277\231\200\001?\376\377\354>\256,\220>\2607\212\276h\254\226\276[*\207=\366\362#\277\313xm>\246Q\200>\267\375\003?\3179\374\276\276\007\273>\217\021?>\251(3?\231\231\325\276\272%i\275\224\377C>\023\305\307\2754[+\276+\201\003>\222\317\200\275\274\314<\277%Z\205>I\200\273\276S\345\270\276\201O}\276\032\214\002\276%I-?\006$1\277\377\246c\276oL\r?\005r\211>[l\245\276M\306!\277\361\256\373\275\342\276\030>\216\310\307\276+\013\325=j\004\331\276\355\211\336=}\036R=\017\005H?O\271\037?\026\331f>DY\242\276.\230\207\276\217S\261\275\272\246\231>\361\264`\276\205\020t\277,\260\305\276v\006\335\274b\247|\276\257\376/?\274jJ>\372E\205?\367\031\376>\217\232L\277\276g >\374EP?Z^\265\276\033\356@\273w]q\275W\036\005?\357P\260=\202p\342\276\311S\227=\017\224I\277\220\350U?\243;&?\377\254\254\276\363l>\277\360\257\307=o$\265>\332\224\004\277\242\365\203\276\372a \276\361\353\212\275\020L\270>\300+/?\302\246.?c{\010>k-\177\276\236\275\202\276\n\227\007?;1\237\276\227\326\237>\222\364k\273\0233\262>\277z\202\274\351\305/>\321\267h\275:m\264\275\233Nm\276t\306\010?\026\262$?\336\217c?\013\201;\276-\032\223=\337\215\237=\273MA\277\272\3163\277\333\313\347>IDq\276\242\370\261=\240~\356>|\350\201\275\345D,?\220\205l\277\256sN<2\360I? \257\332\276\376\321\025\277\010\030\245?y\375:>\212Q\207\276\261\031\032?\2428@=wH\223>\326\250\240=\334b\251\275\255\354\224\275\257\256C\276\004\241\204>\'\353\244\275:8\213\276!\332n\276O\032\302\275\260\360\027?\257z!?&\212\t\277\225\213\220>0\305\275\275cDG\277\\\030X\276\346\360U?\\V\235>\247\367\216\2765\007\321\276\007\271,\277B\374\002\277-\324\221\276\323\356<\275\016\356A\277\207\311\202\276\202F\365=\016\\\212\275\030;\017>v\341\333>\274\344\365>s\361|\276\013<H\277\022\305\343<V\0258?\310\202\335<\311\352\016?l\337h\276\371\304G\277\324f\212=\365\n\007?\033\000\363<\200\302\035\277 \001\325=\326n\272\276\366g+\277\243\311,\276:\347\324\275\263s\260=f\200\315\276n\222X\277cZb\276\'`\r>\373\317\223\274\264\234\237>\2055\365\276\007\346\031?\3367\225\276\346!\316=f7\034\276\335\337\222=$\247\'\277\360\\\024>\256\000\313\275\303\232j?\247\237\002\277\221\374\255\276{,^>\\\234\322=\016pZ\277\'\006\314\276\206\252\216>s(-\277\022\347!>\312\344\020\276O\324_<\032;\364\276c\255\003\276\255j[>I^\365\276\317\317\254\275E\253+?\000A\375>\375\225`>fh\353\276\271\035\366>\315\374\244>\234yI>D\367\206?\366\355c\275\314\212\256\275T\267\224>\235\262\031\277\254M\016\275[R\370\275j{\317\276\223\242\021\2768\241\235>?xy>\375\037$?\020\361,>\001}\021\276\306\003M?\277\211\"?v\205\234\276\r\307t=!3\017?\327\371c\277%A\340>\372\263\361\274\314}\370\276\207\245\273<\336\351c>7.Y=\261\207\r\277D\240\232>\355\362G\276\266y\222\276\236\351P\276wg\372>\351L\235\276\325\310\200\276l.\212\277\255\'\021\276J\245\216\276\204],> \316\222=\265\003\021=\205\361\214\275\211\005\316=\034\360&\276T\014\r\276\030Eb>\331m\036>\263\276l?\216um=\244m\367\275k\237\032?\300\007\024=\271\316t>\272\006l\277\206W\252\276\374)\237\276|\224s\274\250\245\321\276L\307\212\276\241\334\355>\360\016\222\276A.\215>\200\360O\2775\317\313=\\\237\272>}\237T\277\330\376\335>Fo\033\276\2362%\277,\032\347>\312\270:?*\327\272>\'\273\003>\331\272\021?\347\341\236<\345\031\355\274u\354\301\276h\276-?\370\207\205=\250\205!\276\266\001\302\275=\353\215\276\304\340G>\203G\377\276\207\r\276\2750+\034>\203\214:\275\333\027\227\276\277/\206\276\374J\274=4\267\2439#\244U>\371\226\032\276\367s5\276\324uN\276x\024\256>w);?\334\322\365>\266k\022>d\rp\276D\t\277\275\033\260\010<R\252\027?F\231\274\276\205\331O?4y,\276w\000_?\226\270\230>\332b\221\277KRZ?d\205\326=3 \007\276\322\205B>\t\316Q?+~\245\276\205\020\360=\252\367\021?\034\205\314>\372N\212>\370TA>A\262\005?na\233>U@\326\276\352\212\346\276\377$\020<-\356?\275\240\376\242>\316\356i\277\345\323\303\276`\302\031?4\204\307>\235\240\032\276\253\005\333>+\271(\277\030\"\236\276\311\273\026\2778[w\276\300p\236\276o\334\214>\023\336\272\276@\236\225>\345\375\213\276\2601\r?.\246\353\275vO\004\2776P\274>Z\203\275>1\331\225\276\304:R?\325\230\"?\270L\351\275vP:>\3677\207\275tG\322\276\"\356K\277}\321\240\274o/\301=\373\347D\276\277\3075>\227\003\327>\313r\231>\257)\370>b*\210\274\327\206\221\276\204.\010\277\303\274\035\2779\211t>\303)2>G\322G>}x\205\276\223\001\272>7\204#>>\305\253\276\377\374\252\276\323\000\031>3R\253\276\275J\n\277\343O\037\276\300\306\240>\216CL=l\265\206\276\017>\013?\341\200\275\276oL\272\276&\327X\275\350\367\214\275KJ\'\275Q\350\230\276\232\333\010\277G\242\226=\355\234\027\276r\202p\275\r\325\235:\252Y3\277\356\320d\276)\007{\275\002\321\227>\220\354\362=\351\232H?4\201Z\277\301\302\025?^\225\201\275\0020!?\314\355\264=\361g\232\2765m\324\274[j\330=\217\013z?\224\246_\274#D:\2775^&\2775\027\'\276$\273\031\276\204\324\221>Z\301\364\276\310\350\275\2760E\333>\341\325\221\275z\017\210>r\030\236\276\"\215\010?\016\030z\2768\355\230<]\375n\275Dj\376\276-\366\033>\207C\311\275\351\364X\276\355\370\356=\370SM>\006N\004?6d\305\276"
      }
    }
  }
}
node {
  name: "tinyLPR/mobile_net_v3_small/bottle_neck_1/block/pw_out/batch_normalization_5/ReadVariableOp/resource"
  op: "Const"
  attr {
    key: "dtype"
    value {
      type: DT_FLOAT
    }
  }
  attr {
    key: "value"
    value {
      tensor {
        dtype: DT_FLOAT
        tensor_shape {
          dim {
            size: 24
          }
        }
        tensor_content: "\'\230\350>\005R\352>\266w\036?5|\002?\2679\344>\205\276\323>d\204\312>\342\252\330>\370\305\255>\3013\334>%\\\275>\304\017\277>\311\220\311>P|\017?\"\215\364>)\260\341>|k4?#f\346>*\217\374>w\274\327>A\247\352>\035\031\n?pb\273>J\316\260>"
      }
    }
  }
}
node {
  name: "tinyLPR/mobile_net_v3_small/bottle_neck_1/block/pw_out/batch_normalization_5/ReadVariableOp_1/resource"
  op: "Const"
  attr {
    key: "dtype"
    value {
      type: DT_FLOAT
    }
  }
  attr {
    key: "value"
    value {
      tensor {
        dtype: DT_FLOAT
        tensor_shape {
          dim {
            size: 24
          }
        }
        tensor_content: "\334\021\365\2766\025\371\276\315\264>\277`D\027\276\rM4\275\257\367,\277d\207\311\276\'%\211>\031\3641\277\024Z\213\276\245c\037\2767\363\255\276\253\r/\276\005\213\031\277>];\275\321T\320=\016\312E\276\355\007I\277c\317$\277\276?B\277>0O\276\271\364A\277\214YK\276\331\320r>"
      }
    }
  }
}
node {
  name: "tinyLPR/mobile_net_v3_small/bottle_neck_1/block/pw_out/batch_normalization_5/FusedBatchNormV3/ReadVariableOp/resource"
  op: "Const"
  attr {
    key: "dtype"
    value {
      type: DT_FLOAT
    }
  }
  attr {
    key: "value"
    value {
      tensor {
        dtype: DT_FLOAT
        tensor_shape {
          dim {
            size: 24
          }
        }
        tensor_content: "\256\272\016@~\021\251?\t\274b\300\335L=@s\260\375\277\352\234^\276\246\006\326?!\346\016\300;\342\242>\237\026\336>\333\021\301\276\341A\223>\337^_?5\t8\300i\314\013\277;\360\025\300\332=\006\300\233\252\242\300]\201\001@\2217\353\277\343\300B\300\214\373\216?8\005\233\276\314\350,\277"
      }
    }
  }
}
node {
  name: "tinyLPR/mobile_net_v3_small/bottle_neck_1/block/pw_out/batch_normalization_5/FusedBatchNormV3/ReadVariableOp_1/resource"
  op: "Const"
  attr {
    key: "dtype"
    value {
      type: DT_FLOAT
    }
  }
  attr {
    key: "value"
    value {
      tensor {
        dtype: DT_FLOAT
        tensor_shape {
          dim {
            size: 24
          }
        }
        tensor_content: "\203\200\032A\331\235\366@\343\343JA}qOA)\274RA\032o%A\346l&Ah\322-A\312\333\362@o 0A\021\020\'A\352\324\003A\360\317\023A\014\0352A\373EOA\005\335\341@\333SRA\303S\201A\240H@A\344\216\"A\231`9A\325)\216Aew\030A\237\213\016A"
      }
    }
  }
}
node {
  name: "tinyLPR/mobile_net_v3_small/bottle_neck_2/block/pw_in/conv2d_4/Conv2D/ReadVariableOp/resource"
  op: "Const"
  attr {
    key: "dtype"
    value {
      type: DT_FLOAT
    }
  }
  attr {
    key: "value"
    value {
      tensor {
        dtype: DT_FLOAT
        tensor_shape {
          dim {
            size: 1
          }
          dim {
            size: 1
          }
          dim {
            size: 24
          }
          dim {
            size: 88
          }
        }
        tensor_content: "&C_\277\217\274\027\277G{?\277\212R\222>Wk[=\223y^>a\262L\277[N\'\275{\307^=\025\271\030\277\3657~\275}\001\311?\206\373\222\273\264\327\211>1\362\364\276,M\256?\202l\000\276\351\215\r?\032\325\014?\355pw?\274\237\234\274n\2673\277\035\332L?\005\263\037>\304\265:\277\t\025\240\275\313\241h=[d\001\277o\207\266\276~N\026:;z\220=\262\3121>\342\263\230>\004\221\204\277@\026x>\246\221&\277@\200\206>\357\004\317\276I\264\367\276h\\\205>\263\364F\277\321H\353>  \020=\312\231@\277\261\014\367\275v\343\001>K\256\254>\212\276\252>j\352s>\177\001\031\276\251\273l>\375*\202>YB\273>v\304\204>\272(\223\277kr\215=TE\340\275\212\001\354\276\241_|=\\\303\375\276\301\306\322>\317\014\327<\327sB>Y!\202>\2538g\275\231f6=\276xq\275\231\022/\275\327\272\251\274\357\375\004\277/\224\260\275\215\3010?5\210\232>\377\316G?\036\332\007?\n\017\016=\016\235\236=\374\027Q\276b\3552\276k\366\340>\330%n=\224\237\334\275\241\350M?A\374\356\274\366\0318\277G\243\265\275zJ\201\275\353\372\261\276\035\367\024?\226\363\r\277_\000\271\276\033\331\355>\220(\222\276m\205\020\275h\335\234>4\032\327\275\373\331I\277\242\263\201\276>\222\014>o\354;>\006*y\277a\242\370>\367\231\261;<\300\036\277\225\250\217\277\323\264\366\276\264^\006?\3351\205=w\\@>\3477\211>fur\276Z\335]\275t\354`?4yn\277+\333\350=x\274\377\276\203\307\010?2QO?\330I\235?\304\'\030\276\361\366\346=LK\003\276<\3255?|\220\331\276\n\236\017>\213!\306<0\230z\276j3D;$\237\333>\2349\003?\021\265-\277U\252\211\277?\000\322\276\252\217\300;|\034\031?XS\022>r\003\036>\n\010\203\277c\204\213\277<\312\020\277\240\225\367\276\007w\226\275\270\343\217>\000B\240\276r\361\246<\006\027\371\276\207P\373\276\255\202\001\277\213\256\265>\204\3045?\013M,\277\347P*\277\252\374\013?\232\356\007?\310\376\251\274\312K\361\276\225\242\202\276M\017\305\276.]K\277\374u\264>\341\366o\277\204]\036\277\004\3048>q\020\327=\217\226P\277\260\353|\277A\342\251\276R\254y\276y\034\007?\375P\227\275=\371;\277v`\023\277Q~\206\2751\377\035>p\244\341\276[z\226\276\252\234\010?\t\037\037\274\336\237\001\277\244[\000\277$\212*\275t\237\256>b\240\206>Q\224T>\020/\003?U\236)>\251\362{>\201 [\276\220\326\032\277\265,\227>\214 9>gXD\276>l:>\227F\025\277_\377\023?\002\2674\277\002\205\231\276\236gL\276q\200\204>\034\3439?\215\242\337>Q\246\320=\322\223\326\276\366b\206\275\374*\000?NE\005\276\251\275\004>d2\313=\216\237\223?\034J\256\275H\351\376\275\342b\r=\020 \242\2766\3213\276\351\233`\277\014\262\220>\365O\272\276\204P\000\275\377\232\253\2755\210[>u\224\353\276\017I\206>\221\250\335>v\337\035?\216\260\277?\270n\022\277\3136\374\276\243\343\231\276\324\205\361>\007t\027?\214\274\262>*!\034>\032\330\257>\001Q\177\274D\242\013\277\215\030\332=\315\243\017?P\347U?R\266\\?1\010\366>\273\366/\277\321l\364>\226\\\213>\300\267\023?\350\254\214\277\364m\254\276&\023\037?\212\321\364>\020/\002\276\n\203\312=T\225\224?\2069`\276\0100O\276w\344O?\370H5?PCg\277,\273\316\275%j+?mR\026\276T\253\021\276\3234\021=q\024\333\276\350JU>/\235\347>EW.\275}\361\016\277\373\363\345>\213\356\177\275.E@\276T[\200\275\336\337y\277l\245\372=\277B\262\2760\362\201>=\256}\277\376\250$\276Q\257\r\275e\214\227>\355\273\374>\013\230]>\214\207\017\277\361\277\363=\216\246\357\274\275\355\027\277I\245\202?R\213\266\276\262c\252>\t\351\003\2771\351\213<\200\300\350\276\266\224\324<\241\341\254\276\315H\212>\256\266\025\277@\303\303\276\251\341=\277\020\010#??\261\210\277\372\017\034?\237\231\022\277\203\305\013\277\316]`\277\306\275\214\277[\304\226\276\227\030\310\274\3471\220\274\374\261\003\277/\022b\276T\\\266>@+\345<\313\343\202\277\234[\371\276eA\245>s\246D>\005\275:\276)9\224\276\0264\245\275\345\275o>e\355\217\277\345\265\201\276K\035!\277\027\241\035?F\351@>\277-@\277\371{\211\275\334sn\276S\374\342>\227*l\2777\337\001\277A%\027\277\250mF\277\246}\007\277u&\005\276\261\tt\276Z\275,>\201\340\026=\301MJ?\014Z\235>\264s\332\276\326\024\320\2777\034Z\275\377q\036\276\3645\261>\311\345\235\276\0062\266\277F\374\367\276\300\262k\277\257\322_\277\032\013\030\275`S\341<.\327/\276\2013~>eK\322\276x\221\261\275\274\"\234\276\262\202\225=8\212\225?N\223\250\275w\233\034>\271\014\305>`\356\272\276.F\217\276\330\213\255\276\312\016,?\264Y\234\275:s\'?\357g\017>\265\375\323=`\351\374\275p\254\341>\335yR?\371\315g=\307 \340\274\220z\024=\225\3467?f\r\215>dX>\276\311\370\303\274\322\205K\277Y\224\037\277\037\323\311>NX\231<\025\317\030?\227\364S\277&7\265\276\252!\005>\301&\312\276\240\304\277\276-#\331\276\340\330\332>\221H\347>\274;P\276\300\312\316\276)\r\245?6\255\200=\305f\331\276_{\310\276\r5\375\275\377\203*\275E\301\232?)}\276>\372\260\025?\334\233\n\276?m\371>\247\247\024\277\301\264o>T0\314\274\304\346M?\336\'\005?`\310=>\266\341|\276\025O[\276\210\220e\274uz\217>k|u\277\206\002\t\277\257\333w\275\'=%\277D\345!?9\375\022\277a\205\275\276\004#\262\277\014\302-?\334u\004\277C.\345\276\275\372\001?6C\007\276\263D\032?\'\177\023=\245\036\251\275\206\231\250\275\300A\271\274\276\251\344=\354\201c?+L\336=\367\321\302\276\345r\035?\320\335\226\276\300\313F\276\227o\023\277\006\2318\277\211~\247?\327\365\t>b\3247\276\214\363\272=\177\316\007>\221l\341>\037f\317\272aO&\276\310\245W?\020\002\273\277~\016b>\014\273f?\376\332\030\276\255]\222\275\224?\"\276O\231\303\274]8E?\020\364\013\277\003#!?x\330\245=\263WO\275\030\327\034\277Sl\327\2762\323\200\277\204\036m=\350]\260>\0101\301=q\016\247\274\316=\016?M\332L\276\273\030\354\276/\267\322\275d\005\260\275\335\215\253>\374\352\304>\315\233\354>\256P\206?!\303\020>+\226\r\277P\250\235\276\274vw\276#9\302>\'q\227\277\267\007\337\276\312\n\253\273M\305)\2775\204\216\276\201\207\013\276\035W8\277\003\255\031\277\341\371\244=\002,\316\276\003%\212\276\312H\r\277\322\036D\275rs$>\013\225\002\277\324&{?\004\"z>\350\376*\277\262\217\005?`\231\030?\343_j?\235\274\337\275q\005M\277\246.w\276\264?\r>\0321\t?u\037p\274\016\356\016?\236I\016\276\035\241\201?U.\001\277\001\215K<\340\375\023?\334\202z\276\203\242\201>FN\237?\330\354r\274\2171|\276\006\247c\277\264T\256>t\327\031>\370\253$\275a\330n?\251\272\277\274\214\242Z\277f\213\210\276g\335h>\276\242\213>\225\2273<\323\361S\277\002\325\035\277\326\350\243\276\247,1\277\2505\252\276\212\244\346\276\022>\244=\033\257\r\277\355\374\345>\365\035\264?\321\331\207?\320\352\327\276\273\322\322\274h/\r\277}\r=\276\206\253\225\276\307M3?\201\"\244\276\244\255\000?\326i\034?\326\376\217>MFT\277\337\343x\276d=\301=\014N8?\036\300\205\276\0322x\275\230\323}\276\355P^>^kK\277\202\270\272\275\016\t%=#\304;\277\230\303y\275\276\252%\275\322\324G?\322\236%=o{\254=*\023\254\277\026\036\033>\325\333\"\277\022\007B\277\323\361~\275\221{A\276\0370\014\276\r\333==\230\030\026\277t\256,\277\033b\212>\220N\312\276n\354_=\034\\\200\276|\306\003\277\233u\321=}l\r=KK\004?XOR?s=\271>\343\2323=\256J\t\276\"\234\340>\257N\307>TV\341=Nw\214>w\025\346=:\332\004\277\320\351\306\276\351\001Y=\252\331\216>J\027\245\2759\336\251>\ny\t>\244s\351\275(\232\376\276\307\376\335\276\356\364=\277\333p\007\277\003\375B?\366\007\330\276Z>\211=\227\362\345\276\0240\324\274\257\250#?\376e\237\276P\335 \277#\024\236=\\\014\002\276\350s\271>\242\304k\2779\317\244>\210\273\361=\321\253\314>[M\247>\230\003#\275<\023e<(\222\013\276\361\307\254\276\024e\253\2765\366T\276_\006\272\276\031K\300>\027\336\037?y\223\000?*&=?\035\035\311>77\312>\317\304\205;MT\"\276\254e1?\t\037\356>/\223\324\276\'\261\232\276;Z\255\2767\031\022?\240\3036?\372\234\261>#\2243\276\265ZC\277\252(\233?\026\'\363>+\201\037\276\301\333\001\277\250\013l>.\343\022?){\003?\204i\026\276\205\246\205\276{\274\033\274X\337\t\277~\200\035\277\330\002\024>\033\016\233\275=\270?\275\277]\002?v:\001\277<\251\334\273\025R\033\274\363\2205=^W0\277\202\312\346>\264\345A\277\331\013J?\030\013|>\177\007\230\273]\330\316?\034\233\026>\323\327\341>8\333\010\274\263X\031?=\351e>\347\237\003\277\222\022$?l\t)\277V7\226\274v\370<;\234\206M?\000\374\230\276\277\330n<\275\311\005?4\002Z?\254L\355>\304\314B\276\211\274\000\277xT@>\306\026\350>Y\001\333>d\372\212>\351`(\275\266c#\276\"\252\270\275`R\305>\212\252\373\276\223Q*?R\027\365\275\317=\005\277\027\274\203?E\333\363\276^=\033\277/\034\214>\327e#\276\321\023.?\272\243\274<\034\220S=H4\013\275\363\014\024?Nn-\276\005\007Z\276<\275\202\276N\315\365>\242\022\260\2759\377\233>PL\251>\265w\245>\236\306\256>\346z\375\276\\\026\221\277\027\025\356\276\247^\006?\334\334C?\347\206\300\275\263\245P\276\303\222\220?\207\232\376=\250l:?\227\201\205>\206b\"\277\'\314I\277\374\273N=\'X+>\341\316\373\276:\200D?5\225,\277\202\023\213>\313@h\276\230\261\225\273\243%\203>\263:Z>q\266\357>=\275e=\324w\325\275\304Y6\277\241V\021\277\246\251\221>~\372\276>\265a>\277\314#\247?\260\246\'\277\017\317m=y\314s\277|\345\301\276\246\262r?\033\226\005?(\034*?\255\332\241>\006<$\277\233\317b>\221$\300\276>s8\276\234W\003?}=\350=C\033^\277\274^\344\276_\025\373\275\"\203\273>\005a@?\257\253\014<`\3033?\304\271\004\277\236\3438\276\257\320]>\016\263b>Vs\316>\271E\375={w\343<`Nz?Y\301\020\277\211_\270\277?\240\256\276\003\244\246>wc-?j\350\212=\225\344\201>\270v\004\276\3453\363\275<\250&\2761`\004\277\264\026\322\276D\361*?[\371\210\277\356 \005\277\211\207\001\277\024~\204\276\206\367\234>\234\376\316>\376\260\222\277\035] >l\207\362\276\302\255\263\276\2707\026\277EC\240\276\346\302\367\276\374\021\351\276B\366\247\276\354#\030=\025\321\334\2766\340\027\277C\r\204>\370\225D\275\203\000\240\276\215p>\277\3258\247=\0348\261\2764.\354=\3567\"\276\223\221\204\275\336(\341\275p\310z\276\304\370\303\276`}=>\002\016\320>\344\272M\277\022G\"\276\324\221\016\275qG\332\276\024M\261\276\301\204\032\276\340\345\261\276i\016\025?\361\246\023> \326O\277Md\377\275\224Y%=\273B\\\277\315\223\345>\233w\225\275G\244$>\230\277\t\276FP\371\276IdO\274\351\351\253\277@\021I>\2458\001?mi\275\2752\303\022\277\000\362O\275M\251\016\277\324\026;=-\r\277\276Q1\016>\3519\001\277\224\262&?K\311\032\275\276\341^>k\371D<\3267\232\276\266\245.?\214\\z?\220m\016\276\202\266\271>\005\031f>\274\255\265\276\340\353o?{\243\224\276\344\265.?\353\364\332>\344{>?3\265\204>/\347\225?\305\252\302>@\241\200\274\300\244\367;\354%\350>|\227\276>e\336,?\226\274\230\274\210;@\276\037:~\275m\366c\275\202(C\275m1D\274\221\0142?Z\353\274<\017\367=\277K\346m\277\257[J?\002\025I\277\270\246s=\201\352\323\274T\002\036\277\214!\021?(\320\222<\263\304\347=7\362\006\275\363!\317>\031Y\202>\002\t#\277/\006\210\276h\224\363>\320\036\327:\311\303\262>\304{y=\362\207l\277HS\030\277\307f.?\2321Q\275M\260\254\275\024\233E\275\354\214^=\251\253\243\276\014\007\203\277=$\262\275tMZ?\221\035\245?\213L\274\276\313\311\025?^\217\030\277.\212\n=\030o\237\276<\330\t?\354/T\276\367\315}>\20178\277\236\253\371>n+\352>\034>k>\177\320?>n\371\\\277\366\336\331\276\025\025\022=LN\310\276\372\354\321\276(R>?#o\201>\273\000\304>\220\361C\2762\\\026\277\270\343\n\274\221\177\203<\007+\214>\376\310+\276G\014\354\276!Ox?\212c\266\275\312\315o>\372\035)>\231a\370;\335\377f?h\276\016>dKW\2746\270\226<\336\220\211>\246\352\253>jaH?\006\253\371\275\337&\004\277/\240\014\276\230\206\220=\023\317\204>\333\006\261?n\335\000?\261:\206\2741\230\351\276:{\204>\234\371\370>\336\331\333\276\001\014T?\227\364\213>\272\033\332>\377j@?\274P\005\277#\301X\277\334\327\303\276\302\312\215>\311Q\035\277\336*\325\275Ku\334>\223|\n\276\270KP\275/\025\243<\245\272q\277$s\010?\360\337\320<\204\236\031\273}\247\314=\022\014R=)a\031?\375\320\254>|F\331\276\342\233\364\276dh\250>\275\266m\276aP=\276\335\250n?\233\0073?\262\261\'\276\r\r\032>\210\030\030?q&\333=UG4=\333YP>\362\263{?\n\226\000>\014\277\206\276\220\326h=6M:\275\t\204\347\276\235\241\326>q\370X>\002\232<\277o\324\370\274OB\327\276\025\241\224\277\231\276\206?\242m\014?\345r\027\276W\331\335=\340\035e\276B\322!\277v\373\036\276a\010\304\276\230v\371>\001\262\314\275\250x$?\303\253\236\275\310h\362\276\253\013\244\274\302\357\030\276\016\214\332>):F?!x\262=OQ\317\276t\267\305=\233\270\274\275\025&\006?\325\215\305>CR\034?\373p,?\200\373F\277\304\264\304=\336\017\231>k\317\001\277H\235\212?\236\234\014\277\214j$>\022\000J\276\210\221Y>\366\361\014?k\210w?I3\265>\020Y\231\276{\237\272>m\0003?d\253\327>\016\301\221\276!Ej?\303\340\327<\315\362\372\276\223U\371\275\324\332\301\276\326m\264>\225\364\253\275r:+>\256|\004?\362\265\323>\304\237\002\276\266\265\257\276JU\310\276\031\246C\276 \311a\277\207\215\251>\213\372\255\276\216\230L>\223\322\244\277_+j\276\3735\031<\023\036\220<\373.$?\371\272/\276\374\326%\277\031\252]\276se\023\276\001\253$>\236G\023>\215\227\365\276\253\010j?A\213\241>1\254\360\276v*$?\353&\252>,\022\021?\355\271\264\276\310`\014\276-\363\310=\022\2452\277\010\234\"\277?\274g\2779\375\021>\252\232R\276\231h*\277\3311\305\276>\370\316\276\271\250\030\277\360 \304>^\2564\276\353\311F\276\317\365\336>|i\037?\034g\274\276\350n\311<R\310I?\000c\025\276:l\272>\2326\233>\375\371\256>\255\222^\276\251\025\023\27679;?C`\242=\276\332E?\005\257\014\276\302\330b\276$f\202\276\345\032\027\277_`\326=\361\023\030\277\232\226=\277\347\377\232\276\324)\014>>\217\375\276\260F\224\275\206\212\212\276\004C\355>\003\025\256>\223\024T\275\350I`?\312\r\365>\270\032,\276L\346\217?\314sU?0\202\017?\034\021\016?\2108\253=\214\370\216>\343\277\203?\352&(\276\302:\235>j\006A?\014\034s>\022\0057?\253\364\212>{m\207?\227\271\366\275*\367\234?@\004_\275\320Y\205?Zc\003?\311\021\375=\t?G?\330Z$\277\017\025M?\320\215\020\276\0035\304\274\000\223\214?<\035\033?\333x\232\275\211\357\215>l\230f?\366=v\276\306!\002\276\261\347\245\277\301}\010?|W\307\276`>\022\277?\234I>+\335\002\277\310\352\013?EQ\374\275!\001@\274[\010\000>[\317\263;\325B\214>6\370\253>\233h\333\275\365\203\257\276\334\360J\277S\205\005?\254\002]\275\177#`\277j\032\023\276\021u\366=\007\033\234>\022\250\331>\322{\013\277\227\215\304\276\344P;>>\200\037?\234\226*?\241\211\335>\276\361\203<\364ER>\317\373\331\276\\\202y>\320i\347>>\370\t>Y\340\025\276n5\"?[u\r?\277\034\254\276(\232h?3#\017\277+\277\"=\226\275^\277\035i\204\273\021\323.\277\3158\r?i\"H\277\373J\002>\356\265\200\276\204\341\200?\303\305\204>\r\r5=PE\365=\345]\345>B\343D\2769\271\006?]\246\006?O\337\244>o\270Y\275\303\020#>]K\242\274\322\347\321\276g\260\231>1\300\021?\234!\253\277\204\003\003\277\016r\n\276E\314\342\276\3249X\276\311\212Y=\026\2049?\305\240\333\276\0271W?{\'\364\276\2450\035\277MZ5>c\364\233>\275\226\327;\007\254l\276@l\232\275\250\256\203>\013{\013\275\005\243d?\375\203&\277\236Y\274\276\0327\325=\223\036\025>0wz?\347\306m<\301Z\201\276\303J\246\275\275,&>\326\376\017?\013L\207<.\213k\273\032\335\247\276!\022/\276sA\227\276\220}\r?\250\021\317\275\220v\304\276G4\226>Bs\235\276F\225\236<\246E,?\023\0178>\365E\263\274O\t\311>S\344q\276`D\023\277\250\237@\276\2355\346=\205D\272\276\302\342\303>7\210\017\276\1779&=\367\237\226?\263\230q?o\267<?\234\333\206>X\355c\275\222>\227>>41=\230&}\275 \237\"?8\210\225?\321\321\000\276\030Fw>\377k\277>T !?z%[\277\317\267\261?d~\224=\324\026\367=\203\023\217=\315\007\245\276t\323J\277v\305\271\276\256P6\275u\356\222?U\362*?\225w\342>hc\256>S%\222>\366\007c?\\[\267?\220\030H=\266hE\277\235\335A\2762\004\313>\236I\346\276\303\014\035>n\230r\276\204\024\000>y\360\023?#T\351=\t\236@?\272\224Z\277\372\304\364\273\305D\226\275X\320\267\276\245\256\256\276\235\254j?\004\214>\276\303\222U>Bj9>]\374\271>L\361\300\276\375XN=\257\225n\275\331\271\235\276\033\377\224\275\364\243\265=\023,\260>\310\034\313>\335\330u?\"\300\303>\357\277\205\276\213\264W>))\'?\350\320\361>\316#[?\331\034\t\277\200Q\375>\372\377n\277\307\370.?\325\3571\277c\327)?\372\006B?\373\343\300\276ie\276><\273\030\273\244p#>\344\023\264\275\350s\364=f\0139?\205\336\242>,\341\213>\370HE?\'\3616>\336\322a?I\014\177?\243\361\302=\201\021W?\340\030\003\275#\364Q>z\331N>\376^\264\275\371\032\267>\354\"1\276P\307F?\224\256\266\274\246\315\332=4!\271>A[\244>D\0257\277\322\266O?\365\243\016>\277g\332>\016\314\206=\204\226\216>W\031\356>\366\302\331\276\276\320(?\334K\304>\036\304\247>\r\374\323\275\253\325\273\274\225`w>F\231\324>\362VC?\"\033(\277\230\251\304\275\257:\002>:\315\316\275O\265\300\276\264my?\277\020 \2753\216\274\276\312\023H\276\010\354\237\275 \266\345=\345\374\303>\210\177\226>KG\300=\000\275\247\276(%\227\276\000\010G>\336Tx>\312\257\367<\207\215\177=\240\201\363>q\3010\277z\334h=\360\320\343\275\037\371\374\276\265\300\251>\32099\277\376\365\227=\352\306\230>Y\302\350>\376]&>\305\207\202\2779h\242>\367,\274<\036+\001\277<\020\016\277\000_\033>x} ?\204\223\366\276\253\267p\2766\031\007\277\326\356\207\277\352na?\276\301\301\276\245\245\242>&z\351=\252eM\277\014\004\031?\316\364\001\277[W\006?]~s\276\365\331 \277U\356O\276\305II?.\037\250\275\2331\020>\203\317\025\277\3412\333=e\013\337=T\353\226\275\350\302\216>)\316C\276?8:\276l\005C?H\346\030?\034|4>,\264s\277\037\344\362\275\232\r\376\274\313\303\231\277\2475\346=E\217\016\277\214\032Y\277\002\271_\277\206(\017\277\247[6>\002\302\226\275]\242\332\276\022\256i=\3223\262\276\347\321k>:\2310=\202\376K?J\277\032=Q;\031\277\203\230\246?\037\353\242\276\367\377\327>i\307\237\276\205:\244\276\375\243Q>z(\230\276y\375e>\346p\375>\027~,?6\2762>R\"L\277r\213\340>A\334\344>\265\335\000\275n\t\302<_\375\000\277\326OV>\366}\330>Cp\032\276\263\201y>\007u\305\2767i\253>F\221L?\242\220\n?\355@F\277\320\326O\277\\\252\372\275\314\t\200>\203\266Q>:^\222\276c\234\324\276pW\252>\224\370\005\277\316\3620\277\370\206\037?\211\344\241>\232\035+>\025\243j\277\200\373)>o\300T>\234\2473\277p>\207>*\300\346=\321$\211\276v&z\276\350Z5\276\256\277\307>\r\r\314\276q\331\305=\366B3\277\362\351\253\275A\324\241\276\301\232\213\276R\222D?1\375\005?\373\261\352>\tY\010\276\255\330\267\274&\027n\275z\252\237\276*\260\332\276\352-9>]\270i>D\372g?\225\235\300>\202#-\275R\312P\277\263\325\246?\257S\000\276\236\200\341>0O\026?U\345\233\276H\213P>\310\n\244>\'\273\325\276\324tS=\374\027\r\277{\t\274>5\032\371\276\006\374\000=\252\303z>\315\254\035\277\3218\237=<x>\276\0074Z>wD\332\2766U ?\263\245X?\025\005H?F\306\220\276X\202\364>BC\317>F\306/?a\376p\277\352\270:?\346oL\274\005(@?\016\232\004\277\223\262h\276\224\225\206>\342\371\013?\016\001-\275f~\320\276^\300k\277\3736\000?\274\202\017\277\376D/\277?p\320\276\325\354\311\276\014\323\007?\270\356N\273\026h\251>}\020\260\277\360\232S\277d\007a?\202\341\375\274_d\r>+x\031\277\247\013\251=>\342K>Vut\276+\024g\277bG\310>e\370\277>}\331P\277\274\235A>O\251=?!\177\321\275\245\214\035\276\034\347\261=\250\260\007\277\246)\334\276\\\266!\277f_V\275\273\334\\\277\346\224\025\277\243K\t\277\362\334L\277\027\014\265>\333Kr?&\226\356\276\021\253\251\276\274\250\236\275s\377\302\276\356,S>^\260\371>\205\200&\276\225A#>\351\373\032?\211\323\'>\353s\267>\241\233^<\217-\206\272\303\307t\276\364>}>/\235\356=ZBR\277$\017\034?\313\332$?\206\213\251\276\034\217\205=E\013\365\276e\353\010\275\271\316\231>\345\360(?\3478\r>\275;\274>\\f\227=vKb>u\"\234\276\206g\265>\203}\001\277\004\271*?V\312\346>\003!\353>\323\241u\277\260!\360\274Bh\226\276x\314\367>\331j\021=\037\347\n\276\026@|>\217\233\371\276\270\n#\277\034\017\t\277\257\215\307>\376\034+\277\341\220\245\276\375\224f\276\253\022q=1/A\277`O\005?p\005R>\262ER>U\025!?\305\271a>\004\024\201>\241\273s\276\t\306+=\363\312\363>\004(\310\276~M:?\227n \277{\324\275>t!\366\276\3359\251\274:V\227<_\207\007?xI\350=\337I\235=u\371\331\276J\201\224\276\305\206\314\276\037\231&\277\030\277\217>$\202\031\277\301\244\324>t\031\200\276\005\\R\276\317\263\257>}[\255\275n\272\201?\n;\022\276\321#B\276\240\r\321>b\305\213\275\336\272L<\335\010\022\277\230\317\246>z\227i\276\374\266\233?\200\360\031?DeA\276W\020K\2771\277\264\27687\210\276\371\272\302>\025Rd\277\010lu>H\302\227>gk\037?#\340y\277\375\003\263\276\322\203\020?Pf#\277\320\211\204>5A\236=S\200\257>\341\331&?w\003\006?_\274\315\276\243\330\223>\226\202\335\276\331\030\026\277\364\201\026=\264\217\244>\227H\374=\211\330\200\277\242\2544\276`v-?Ff\200\276\001\0228>UB\334>\010\244\002\276$,\357\276\017\206\220\275+gp?\337\210\250>|\227\274\276\032\350\275\276\371\356\004\276?\3539\276\301\324\331>\304\317r\2761a\243\276\002\341,?o@\006>I\317\212\277~\304\273>T\031\032=5\373\013\277\301c\344>\024\302\316>|\234\024\277\275\340*?\3261\247==W39\263\325\202==\310?\276S\276\357\276\347\277\302>\267\3508?\353=\217\275\365\377\200\277\007\352\202>\2212\233>\2501\r>\350\nP?\035h\333>\224?\321\276\026\226\324=S\263\345>\361\361\031\2760\017\023?\320Z\310\276\220#\322=A\0273\277\334\322\305>^\177\024\277\213{\226\275\215\215{>\002l>\276\351\022P>\367\200\302\275rW\310\276\311\204\250\276\200\234\247=\215{\363>NZ\303>\226\252\341>R22?\324\305\354\275t\300#\277\010\331D\276\315\211H\276X\306\333;l\035\r\275c\343z\275\203 \212;\260\352\252>\002o]>\372\2106\276\020\202\002?\032w\300\276\365\304\262\274\273&\247\275W\\\210=\324w\353\275~S\255>\365\302>?>2\367\275R\3014?\333\263p=h\325\267>5\216\r\277\0304\233=\260\'\216>\\\245\001?6\311k\276ri\370\276g\273\350>\337\247L>\310Fp\276\243\325\213\276\241`\022\277\0006\024>%\265\r>\243\352\261>\034\353R>@\325\\?\273\233\036\275_\017\225\276V\307\355\275\330\334\032?\277\027\221>\344\211\254\276\205c\330>a\0372\273\\\334n>r\366M?\211W\324>\203\241\217\277\375\274P?Z\346{\276j\003\307>s^ ?j\\3>\206\022\035?]\362\303\276\3446k>j\253\013\277\264kM\275\223f\026>\327#\337>\002\001\316\276\310\217\302\276\027L\r\277\315Z\306\274\020\230d\276\"\007t\276m>\025\277\370\310\212\276\306\364\031?9M\236>=+\243\276\025\274Z\277hy\347\276\302\205\n\277\032\351\024?\0206\264\276O\'\222\276\271)\251>@\376+\277\254\205U=\326\370\033\277t,\225\276\250\316%\276\224\213e\277\362\307B>m\212x\277L;\367;l\264\221\277\317\233>\276\005\023B?\374\302\243\277w\371[>\034\214\252\277\253\014\300>q\023\004?\362|\214=f\310\364\276\371k\220\277/l0\276$\371\357>\315\315\032>\371\2323<\213\016?\277\353\3765>\350\332\024\277\311r[>\202i\261\276\372\227U\277\331\220\332>U\375<>\335\035r\277\362\245B?\010\203\225>=\245\037\276\255\022\313=\334}\301\275\032\324\340\276\374\377\306>wK\026\276>|\242\276k\230\320\276j\246\253?\344\343\216\276b\361\341>\206\367\311\276B\016\217\277`K\325\276\002\325C\277x2\315>_s\t?.n\374=\247\365p>\325\205,\277\000\'\005?\242\346)?z\032\205?\246\302\203>:~\307>E/3>\315\350\'\276M\221\203?n/\310\276\026\207n>HO\320>C-\317>\374\373B\275\270\001^\277\2708\004\275\"+\200\275\352\225[\276b=8?\246\307Q\273]\250\261>E_9\277~\214_\276\314\n\370=\341v\376>}\010\274>\021F#?e\363Z>\250\014\375>$\354,\275\361\350\005>\023\027\021?\271\366O\277\001\334&\277\272\214\232\276H\2420\277t8Y>\336\221\352>\333\254w>\307|\367\274\253\033\014?\243\314(?\253\273\003?\201\300-?^\266\311>0!\274\276\254Q\263>\002\373C\276ER9?]Kq?\032\374\027\276\223P-\277Z\031G>.\310\303\276f\002a>\263t\312\276q\242\003\277\366h\256\2769{\031?\030\023\312\27670g\276_\022\346\274l\304\261\274\251\226\n\277\253b\201?\276\002p;cQ\263>$\230\245\276\203F>?6p\221\276.&\352\275\270w\031>7I\034>wR\020>\t)\253>\330\211\023?\021\334\016?\346V\344\276\267\371\'\275\312PH>|\002F?\216\010\\\276yn\311\276!\230\347>\371\214\234=l+\230\274\241P\207<$\260\014?ZV&\277\001/\376\276\2064\026\277z49\276S0\016=\016>\004\277\006LO?bt\366\276\334E\233=\253\235\325=Ij\212\276A2O?\177%L\276\356\341h\277_O\207?-h\276>\277eF\277Jl\267>P\025>\276\277\001@>k\003\024?&\322O>x\330\200\277\235\370\010>\325\036\352\276>D0?\315\216~>\320\215\324\276MJ\214\2769\340L?\374\243\240\271\226\022h>t\223\202>\352\310=?W\205&\277\331\242\000>\334\371&\274\002\316\232\276\024(P?xj\220>)\276|?\321\366\031\276\275\3473\275\342t[\2764x\034\276c\322 ?\316=\251=\336\346\017\277l\177\225\277\332\004\001\276\202s$\277\017\303\256\276\367\332\322>\253\026\253\2755\237\252\274\336\245J>\352\024/\276\255\307\'?m\356\025?\374\005\343\276\021\353\236>0|\322\274\034a\334\276\007\272\226>\373\010\n>\312\311\330\276\326S\215\2766\304r\276\312\375[?C\252\n\277"
      }
    }
  }
}
node {
  name: "tinyLPR/mobile_net_v3_small/bottle_neck_2/block/pw_in/batch_normalization_6/ReadVariableOp/resource"
  op: "Const"
  attr {
    key: "dtype"
    value {
      type: DT_FLOAT
    }
  }
  attr {
    key: "value"
    value {
      tensor {
        dtype: DT_FLOAT
        tensor_shape {
          dim {
            size: 88
          }
        }
        tensor_content: "\021\354\235?\024\303\216?1\312Q?\273\353\214?\211\230i?\364P\021?\317\252n?\324\376\236?\270~\232?\317;\227?\275p\372?\276o@?qv\033?\001\361\227?,\206\253?<\321\303>\261\2375?l\ty?p\013&?\375Pj?\002\\J?\361\t\216?\220s[?\242\213\302?\255\006\331?\265?\205?\236\256\307>\216\327\217?\260\034\251?\020\301f?\245\301\200?\371N\242?\357\276A?\256A4?\231D\347?\'`\030@#k\354?it\353?{\320\202?\2357=?s\334P?x\311\336?\215\246\217?*Ox?5\307W?\033\306\351?\024D\247?\313\204\216?\005\246F?s\021 ?\311\203\276?\221\303\344>\275\275\352?u\232{?\217b\r@A\227\223?\030\217\236?*\300\246?\340\230\202?_\r\224?\260fr?\363\331\205?\257\\\001?\235\205\236?@\236\317?\270ux?\306x\235?\0356\235?\236\321\364>\263\220\206?\213\301\263?r\366\225?\001\373\257?\251\275.?\310\353\213?;&\270?\320W2@4\006\210?x\3664?\204oz?L\371\265?\027O\224?\236:\203?\322\014\213?$>u?H\315\036?\220\031\256?\253\177L?"
      }
    }
  }
}
node {
  name: "tinyLPR/mobile_net_v3_small/bottle_neck_2/block/pw_in/batch_normalization_6/ReadVariableOp_1/resource"
  op: "Const"
  attr {
    key: "dtype"
    value {
      type: DT_FLOAT
    }
  }
  attr {
    key: "value"
    value {
      tensor {
        dtype: DT_FLOAT
        tensor_shape {
          dim {
            size: 88
          }
        }
